▁xxunk	0
▁xxpad	0
▁xxbos	0
▁xxeos	0
▁xxfld	0
▁xxrep	0
▁xxwrep	0
▁xxup	0
▁xxmaj	0
<unk>	0
.	-2.78488
/	-2.90391
▁-	-3.14928
-	-3.82218
▁sudo	-3.93242
▁git	-3.96008
▁cd	-3.9728
▁	-4.05022
_	-4.06413
▁vim	-4.24321
▁ls	-4.29884
▁/	-4.44157
c	-4.7196
▁vi	-4.75989
▁.	-4.81956
py	-4.81978
▁cat	-5.06184
sh	-5.18218
a	-5.2113
▁python	-5.31109
▁nano	-5.33378
▁rm	-5.38296
▁install	-5.40323
"	-5.43087
s	-5.44968
▁--	-5.46296
▁apt	-5.49671
l	-5.54568
etc	-5.5679
▁..	-5.59699
▁"	-5.60666
2	-5.62845
▁status	-5.6681
▁add	-5.67702
m	-5.69192
d	-5.69428
▁make	-5.70132
3	-5.71234
txt	-5.73762
▁|	-5.75983
1	-5.77534
get	-5.7847
u	-5.86415
p	-5.91488
o	-5.93263
▁ssh	-5.93833
i	-5.94241
▁commit	-5.96341
▁grep	-5.97144
:	-5.97272
h	-6.01049
f	-6.02675
▁test	-6.0324
▁push	-6.03299
rb	-6.04685
r	-6.04883
com	-6.06813
0	-6.07448
▁docker	-6.09944
▁echo	-6.12271
conf	-6.14678
v	-6.18787
▁ps	-6.18811
▁man	-6.24655
x	-6.25607
▁origin	-6.25642
▁mv	-6.27657
php	-6.27858
▁master	-6.28337
▁mkdir	-6.30257
▁less	-6.30319
config	-6.31438
home	-6.36056
▁chmod	-6.36528
la	-6.38258
rf	-6.4076
log	-6.4393
e	-6.44648
▁nmap	-6.45469
git	-6.48062
n	-6.48568
@	-6.48641
ltr	-6.49246
▁cp	-6.49687
java	-6.49788
▁run	-6.50163
name	-6.50951
▁0	-6.51847
▁node	-6.51873
▁pull	-6.52368
html	-6.53788
▁su	-6.5418
1.	-6.54637
usr	-6.55095
S	-6.55645
R	-6.56772
tgz	-6.57809
4	-6.58064
bin	-6.58557
▁app	-6.58876
▁gcc	-6.59231
t	-6.59581
\	-6.60948
▁php	-6.62432
▁./	-6.63171
var	-6.63386
▁find	-6.64701
b	-6.65523
▁config	-6.66062
▁update	-6.66408
▁~/.	-6.66738
▁clean	-6.68357
'	-6.68585
al	-6.69492
▁set	-6.70394
▁../	-6.71416
▁a	-6.7144
out	-6.72051
▁npm	-6.74062
▁1	-6.74265
▁$	-6.74463
▁systemctl	-6.75881
▁'	-6.76195
yml	-6.76521
2.	-6.76731
▁tar	-6.76965
zip	-6.77331
▁trabalho	-6.78121
▁java	-6.78743
tar	-6.79471
▁g	-6.80896
▁root	-6.81562
▁server	-6.84182
uv	-6.84957
dev	-6.85153
grep	-6.85491
▁main	-6.85652
gz	-6.8604
▁172.18.1.5	-6.86115
▁pacman	-6.87136
▁*	-6.88565
ssh	-6.88632
▁restart	-6.88689
g	-6.89011
▁bin	-6.89983
*	-6.9033
y	-6.91996
▁service	-6.93389
js	-6.9401
▁wget	-6.94127
▁~/	-6.94717
▁nohup	-6.9533
bashrc	-6.95644
▁user	-6.95722
local	-6.96061
▁eth	-6.96529
test	-6.96696
jar	-6.97503
▁x	-6.97824
bash	-6.98553
app	-6.99983
▁ping	-7.00603
=	-7.0239
▁start	-7.04565
▁mysql	-7.06331
ro	-7.06632
▁checkout	-7.06637
|	-7.0951
▁manage	-7.10646
▁bash	-7.12392
▁tail	-7.14284
lib	-7.15232
▁ruby	-7.15878
▁f	-7.16255
▁init	-7.16614
▁src	-7.17389
▁touch	-7.17889
▁ifconfig	-7.18086
▁clone	-7.1891
k	-7.20533
pl	-7.20608
A	-7.23305
▁i	-7.24023
://	-7.25517
▁teste	-7.25759
▁build	-7.25931
root	-7.26408
▁pip	-7.26418
L	-7.26538
▁log	-7.2697
▁perl	-7.26999
▁+	-7.27195
2019.	-7.27415
▁>	-7.28002
▁list	-7.28931
D	-7.29535
▁primeiro	-7.2999
▁source	-7.31472
cpp	-7.32593
Xresources	-7.32636
w	-7.32641
tmp	-7.33033
▁exec	-7.33254
rsa	-7.33555
edx	-7.34379
▁sh	-7.34394
▁remote	-7.37302
▁scp	-7.37484
db	-7.37847
help	-7.38509
▁search	-7.39778
▁data	-7.39813
map	-7.40095
zvf	-7.4012
server	-7.40358
▁lib	-7.41155
proc	-7.41449
service	-7.41561
5	-7.41714
avan	-7.41836
global	-7.43004
print	-7.44104
lrt	-7.44215
github	-7.45455
genetic	-7.45738
invoices	-7.45838
▁all	-7.4641
▁stop	-7.46429
main	-7.47573
ad	-7.4819
▁uname	-7.48382
6	-7.4898
▁index	-7.49083
json	-7.4936
share	-7.49568
data	-7.50042
▁show	-7.50215
8	-7.51293
▁admin	-7.51462
▁rails	-7.51965
all	-7.52791
▁locate	-7.53084
▁file	-7.53559
▁qemu	-7.53898
▁hello	-7.54222
▁bundle	-7.5433
▁javac	-7.55287
which	-7.55726
j	-7.55839
▁ll	-7.56436
nox	-7.56794
▁s	-7.56848
▁2	-7.56987
▁bzr	-7.57912
▁spec	-7.58009
hosts	-7.58673
md	-7.60835
▁kill	-7.609
▁README	-7.60963
opt	-7.61098
▁iptables	-7.6183
▁gulp	-7.62044
▁shutdown	-7.62057
xml	-7.62435
▁fcrackzip	-7.62935
▁*.	-7.63836
▁pkill	-7.63859
▁localhost	-7.64136
0304	-7.64784
▁branch	-7.65028
spec	-7.65252
file	-7.66175
run	-7.66412
▁~	-7.67018
list	-7.67397
▁my	-7.67779
▁mdk	-7.67834
▁&	-7.68513
▁&&	-7.68591
version	-7.68658
src	-7.68703
▁Makefile	-7.68898
▁getNoticeType	-7.68908
▁reboot	-7.69561
profile	-7.69823
7	-7.69893
linux	-7.69934
,	-7.70917
▁use	-7.7207
▁ip	-7.72474
67	-7.7356
▁p	-7.73812
init	-7.74966
▁aux	-7.7633
H	-7.77028
pkg	-7.77533
▁Main	-7.7766
default	-7.777
cache	-7.78331
▁if	-7.78492
er	-7.78856
vim	-7.79003
▁rake	-7.7913
▁udp	-7.79553
ls	-7.80053
▁apache	-7.80728
▁new	-7.80979
▁https	-7.81212
www	-7.82389
▁nslookup	-7.82411
4.244.	-7.82413
58.3	-7.82416
install	-7.82862
▁id	-7.82967
tf	-7.83102
▁www	-7.83379
▁ros	-7.83509
01	-7.83808
net	-7.83946
▁trizen	-7.84101
▁du	-7.84275
▁ifup	-7.84296
9	-7.84683
▁up	-7.84832
▁emacs	-7.84865
python	-7.84972
▁yum	-7.85184
▁diff	-7.85269
id	-7.88652
rm	-7.8899
/*	-7.89304
++	-7.89542
▁-9	-7.90086
▁xr	-7.90425
▁db	-7.91578
scan	-7.92626
z	-7.92663
ing	-7.92893
▁v	-7.92913
▁scan	-7.93239
de	-7.93353
▁more	-7.93504
vimrc	-7.93575
▁yaourt	-7.93577
▁5	-7.93654
▁AddView	-7.93785
rc	-7.94123
configure	-7.94164
▁df	-7.94203
▁upgrade	-7.94453
first	-7.94591
▁sxhkd	-7.95262
▁history	-7.9568
▁be	-7.95992
docker	-7.96299
script	-7.96744
jpg	-7.97174
▁53	-7.97196
ed	-7.97297
▁Downloads	-7.97312
project	-7.97358
▁>>	-7.97661
▁cm	-7.97809
▁777	-7.98283
▁jenkins	-7.98365
T	-7.98566
ef	-7.99024
3_	-7.99356
dir	-8.00214
▁rspec	-8.00678
▁;	-8.00891
▁exploit	-8.01102
index	-8.01194
mnt	-8.01369
P	-8.01538
fq	-8.02662
▁netstat	-8.02685
mp	-8.03241
C	-8.03323
▁wlan	-8.04348
E	-8.04895
▁composer	-8.04896
▁assn	-8.04985
tex	-8.05204
▁brew	-8.05213
env	-8.05261
Info	-8.05638
sqa	-8.06007
▁curl	-8.06011
ryo	-8.07115
▁setup	-8.0714
▁check	-8.07734
unicorn	-8.07747
to	-8.07833
▁deurbel	-8.07917
node	-8.07964
lker	-8.08078
lpthread	-8.09026
;	-8.09133
user	-8.10043
▁3	-8.11437
▁chown	-8.11458
lms	-8.11507
▁syscoind	-8.1162
▁watch	-8.11731
apt	-8.11932
place	-8.1254
views	-8.13062
on	-8.13089
fa	-8.1315
▁screen	-8.13285
catAxoFastqFiles	-8.1346
▁mplayer	-8.13461
▁study	-8.13768
Main	-8.13798
▁head	-8.14189
lt	-8.1423
▁ansible	-8.14685
cpuinfo	-8.14992
akamai	-8.15078
▁sort	-8.15306
4.	-8.16149
Ss	-8.16623
▁cut	-8.17064
▁result	-8.17212
+	-8.17574
down	-8.19096
▁options	-8.19164
▁runserver	-8.19516
in	-8.19581
PATH	-8.19906
admin	-8.20163
compose	-8.20234
rs	-8.20238
▁proc	-8.20649
▁c	-8.21762
matching	-8.22398
set	-8.22868
▁sed	-8.23063
▁now	-8.23701
X	-8.24898
con	-8.25436
apache	-8.25548
merge	-8.26423
▁cs	-8.26516
sV	-8.26589
F	-8.26603
▁artisan	-8.26976
ca	-8.27295
john	-8.27303
02	-8.27495
▁http	-8.27505
▁"*.	-8.27589
q	-8.2762
▁trab	-8.27859
▁LHOST	-8.28141
an	-8.28218
▁public	-8.2856
M	-8.28632
or	-8.29158
cfg	-8.29328
▁openstack	-8.29353
▁fetch	-8.29427
org	-8.2948
)	-8.29663
00	-8.29865
▁dns	-8.30122
6.	-8.30169
pub	-8.30873
webmin	-8.30917
client	-8.30974
yahoo	-8.31112
▁web	-8.31765
3.	-8.3191
▁dnf	-8.32082
▁Documents	-8.3215
pi	-8.32209
5.	-8.32277
▁export	-8.32756
go	-8.32963
media	-8.33077
less	-8.33452
http	-8.33697
▁mount	-8.3373
▁out	-8.33735
▁play	-8.33848
\0057	-8.34057
email	-8.3423
keys	-8.34768
▁map	-8.35032
▁terraform	-8.35154
▁merge	-8.35401
ment	-8.35415
passwd	-8.35491
builder	-8.35534
type	-8.35738
▁unzip	-8.36073
fr	-8.3608
el	-8.361
▁edxapp	-8.36185
isitools	-8.36695
▁collectd	-8.38056
▁wc	-8.3835
▁nbgrader	-8.38726
▁seq	-8.38733
ctl	-8.38883
my	-8.3907
▁send	-8.39295
ns	-8.39604
~	-8.39614
altr	-8.39696
▁migrate	-8.3977
01.	-8.40151
key	-8.40717
301	-8.41596
3/	-8.41897
Axo	-8.41909
▁script	-8.42179
re	-8.42281
▁images	-8.42821
mkv	-8.43072
▁b	-8.44493
▁down	-8.44775
ar	-8.44838
course	-8.4538
hello	-8.45386
unix	-8.45393
O	-8.4556
▁10	-8.45819
update	-8.46036
backdoor	-8.46051
rhel	-8.46418
▁gw	-8.46716
HOME	-8.46754
▁namp	-8.47109
unit	-8.47122
add	-8.47185
▁$(	-8.47303
csv	-8.48406
▁con	-8.48918
save	-8.48931
▁10.1.135.83	-8.48934
recipes	-8.49359
▁10000	-8.49867
▁pintos	-8.50091
np	-8.50188
▁d	-8.502
▁scripts	-8.50298
▁tessel	-8.51079
▁rept	-8.51167
is	-8.51512
network	-8.51548
▁open	-8.52078
▁templates	-8.52183
author	-8.52196
mysql	-8.52278
check	-8.52323
serv	-8.52915
os	-8.53064
I	-8.53554
11	-8.54046
B	-8.54253
am	-8.54591
▁getNotice	-8.5483
pgrep	-8.54968
ip	-8.55394
▁rvm	-8.56047
printf	-8.5616
playbook	-8.56377
▁mpirun	-8.56377
10	-8.56559
qa	-8.5663
it	-8.56683
extranet	-8.57167
▁gem	-8.57244
J	-8.57279
edxapp	-8.57325
css	-8.57451
example	-8.57778
G	-8.57838
▁e	-8.57949
▁"%	-8.58079
screen	-8.58212
▁oc	-8.58228
▁10.1.26.9	-8.58344
cnf	-8.58352
ized	-8.58505
▁val	-8.59
▁"`	-8.59337
▁killall	-8.59675
web	-8.59723
▁login	-8.5984
collectd	-8.59861
▁grove	-8.60308
'`	-8.60404
▁'\0057	-8.60488
tools	-8.6049
exit	-8.60622
▁dpkg	-8.60666
▁wal	-8.60676
▁comando	-8.60712
▁nginx	-8.60874
▁S	-8.61335
▁22	-8.61388
▁mongod	-8.61637
▁w	-8.61867
▁stash	-8.61968
▁top	-8.62015
▁gpio	-8.6211
▁profile	-8.62129
info	-8.62178
gdb	-8.6225
▁Trinity	-8.62483
ubuntu	-8.6316
▁serve	-8.63338
▁remove	-8.63517
▁tomcat	-8.63575
emacs	-8.63586
▁arquivotrabalho	-8.6379
▁eve	-8.63817
mod	-8.63915
▁syscall	-8.64088
▁post	-8.64283
▁chef	-8.64299
io	-8.64856
history	-8.64868
▁n	-8.65316
U	-8.65499
▁y	-8.65625
grin	-8.65739
▁dev	-8.65821
bak	-8.66205
@10.1.26.9	-8.66266
▁au	-8.66344
settings	-8.66622
▁led	-8.66666
▁env	-8.66748
▁google	-8.67143
▁conky	-8.6731
so	-8.67449
}	-8.67692
▁tmp	-8.67923
select	-8.68321
tomcat	-8.68368
lh	-8.68467
N	-8.68576
7.	-8.68769
▁get	-8.6891
▁bower	-8.69289
▁code	-8.69355
fti	-8.69407
supplicant	-8.70534
▁lab	-8.70591
old	-8.70816
▁st	-8.70912
resolv	-8.70954
▁whereis	-8.70982
modules	-8.7104
android	-8.71067
▁webmin	-8.71286
lock	-8.71308
tasks	-8.71553
es	-8.7166
▁../../	-8.7205
▁gpaw	-8.72375
▁lex	-8.72401
▁rofi	-8.727
▁la	-8.72807
15	-8.73078
asm	-8.73226
activate	-8.73376
SC	-8.73399
▁image	-8.7355
▁wilo	-8.73558
users	-8.73588
▁D	-8.73602
st	-8.73745
▁httpd	-8.73785
▁rubocop	-8.74179
text	-8.74283
▁invoices	-8.74284
start	-8.74297
aux	-8.74354
▁4	-8.74967
Downloads	-8.75285
packages	-8.75987
gitignore	-8.76001
en	-8.76013
▁scriptrabalho	-8.76065
V	-8.76116
png	-8.76214
mk	-8.76515
▁dist	-8.76564
▁read	-8.76626
sql	-8.76703
▁sessions	-8.76803
flash	-8.76848
▁rx	-8.77147
scripts	-8.77162
jenkins	-8.77212
▁home	-8.77286
samba	-8.77696
interfaces	-8.77727
public	-8.78151
sys	-8.78245
common	-8.7841
and	-8.78428
▁axo	-8.78604
login	-8.78965
gmail	-8.79154
migrate	-8.79177
us	-8.79227
@10.1.17.4	-8.79421
oko	-8.79579
▁da	-8.80148
▁"$	-8.80652
▁STDOUT	-8.80926
▁pro	-8.80949
un	-8.81123
platform	-8.81153
Documents	-8.81188
▁help	-8.81286
▁in	-8.8131
▁RHOSTS	-8.81501
boot	-8.81672
24	-8.81924
ce	-8.82552
Q	-8.82555
▁8	-8.82652
▁ss	-8.8285
refresh	-8.82904
▁crontab	-8.83031
si	-8.83165
tree	-8.83382
-1	-8.83567
fork	-8.84292
▁include	-8.84404
colors	-8.84771
acc	-8.84999
rea	-8.85144
▁clear	-8.86157
edit	-8.86796
build	-8.86872
▁Con	-8.86994
class	-8.87035
xargs	-8.87462
▁127.0.0.1	-8.87495
▁sysctl	-8.87844
▁clnt	-8.88097
List	-8.88109
08	-8.88204
le	-8.88236
rules	-8.88458
grub	-8.88527
handler	-8.88632
tor	-8.88935
aliases	-8.89187
▁temp	-8.892
▁reset	-8.89416
02.	-8.89662
▁upload	-8.89785
▁redis	-8.89982
repo	-8.90026
▁output	-8.90082
▁to	-8.90613
no	-8.90645
num	-8.9065
▁hadoop	-8.90789
ti	-8.90889
▁passwd	-8.91023
▁learn	-8.91139
master	-8.91257
▁clones	-8.91291
▁howodd	-8.91349
▁z	-8.9163
load	-8.91983
▁gedit	-8.92021
▁JetAirways	-8.92457
▁bybys	-8.92457
slim	-8.9246
▁dir	-8.92655
▁modprobe	-8.92656
nodes	-8.92864
temp	-8.93007
keygen	-8.93053
show	-8.9319
25	-8.93214
edu	-8.93479
wal	-8.93696
repository	-8.94114
▁info	-8.9425
▁adb	-8.94271
status	-8.9473
lua	-8.94747
▁proj	-8.94899
▁for	-8.95161
CentOS	-8.95283
sean	-8.95313
httpd	-8.95335
pp	-8.95342
]	-8.95492
▁kernel	-8.95919
▁CVE	-8.96019
1_	-8.96085
▁20	-8.96121
▁rep	-8.96982
sim	-8.96986
-5/	-8.97039
▁ubuntu	-8.97076
seed	-8.97197
▁linux	-8.9725
up	-8.97431
▁exercicio	-8.97601
▁nc	-8.97608
templates	-8.97782
webapp	-8.97932
▁palind	-8.98364
▁l	-8.98488
urls	-8.98658
doc	-8.98677
▁ficken	-8.98786
wpa	-8.9899
▁aula	-8.99119
infra	-8.99379
▁case	-8.99898
bind	-9.00056
pdf	-9.00077
▁`	-9.00194
lab	-9.00361
▁Desktop	-9.00371
▁electron	-9.00578
filter	-9.00658
track	-9.00674
▁mech	-9.00679
ansible	-9.00689
▁roles	-9.00837
path	-9.00848
▁xvf	-9.00862
slamen	-9.00993
world	-9.01214
personal	-9.01304
▁shell	-9.01377
▁uninstall	-9.01803
Data	-9.01922
rofi	-9.01996
Project	-9.02097
▁newbie	-9.02407
pulsar	-9.02544
172.18.1.5:10000	-9.02615
sch	-9.02756
exec	-9.02905
▁go	-9.03362
206-	-9.03388
▁telnet	-9.03684
off	-9.03691
▁C	-9.03696
time	-9.03706
ini	-9.0373
base	-9.04106
▁xargs	-9.04415
demo	-9.04455
▁smbd	-9.04482
▁personal	-9.04799
iptables	-9.05099
▁system	-9.05232
▁default	-9.05463
▁HEAD	-9.05682
▁name	-9.05792
▁recipes	-9.06026
Dockerfile	-9.0681
projects	-9.07021
top	-9.07035
▁ml	-9.07244
▁SS	-9.07257
files	-9.07267
meta	-9.07502
▁updatedb	-9.07513
▁tr	-9.07592
▁hacking	-9.07668
▁R	-9.08059
▁asm	-9.08063
▁cool	-9.0811
17	-9.08347
▁aaa	-9.08362
▁true	-9.08577
▁A	-9.08588
▁rev	-9.08681
pipe	-9.09139
▁demo	-9.09211
?	-9.09213
▁tasks	-9.09322
▁re	-9.09386
gen	-9.09431
ke	-9.0957
▁air	-9.09778
▁<	-9.098
▁RHOST	-9.09938
13	-9.09984
_04_1	-9.1008
-201	-9.10188
▁P	-9.1031
▁done	-9.10316
nv	-9.10703
sdb	-9.10704
▁axuww	-9.10745
latest	-9.10904
Test	-9.11033
dotfiles	-9.11043
@172.18.1.5	-9.11412
sensor	-9.11733
▁xv	-9.11876
send	-9.1191
yes	-9.11947
▁cloud	-9.12068
▁wifi	-9.12069
=1	-9.12079
tab	-9.12216
▁ipython	-9.12366
▁idade	-9.12414
intel	-9.1242
at	-9.12512
▁t	-9.12773
new	-9.12823
29	-9.12847
▁../..	-9.12914
▁ppa	-9.1325
et	-9.13336
Search	-9.13457
▁makemigrations	-9.13457
▁allocan	-9.13468
23	-9.13634
▁develop	-9.13671
3-	-9.13684
▁CMake	-9.13718
▁logs	-9.13784
▁key	-9.13865
manager	-9.14046
force	-9.14155
sk	-9.14215
▁ca	-9.14257
▁755	-9.14288
▁readme	-9.14368
▁K	-9.14599
code	-9.14648
▁pa	-9.14786
yaml	-9.14843
03.	-9.15043
▁psy	-9.15479
▁ccsp	-9.15829
setup	-9.15975
▁conf	-9.16029
▁local	-9.16064
20	-9.16204
▁ln	-9.16204
restore	-9.16249
line	-9.16613
▁o	-9.16851
▁vagrant	-9.16884
19	-9.17132
ac	-9.17199
▁helloworld	-9.17221
▁notes	-9.17261
assignment	-9.17387
▁u	-9.17517
▁umount	-9.17672
rasi	-9.17685
▁first	-9.17749
▁packages	-9.17752
▁cnn	-9.17837
▁6	-9.18258
`	-9.18313
nginx	-9.18858
bjohnston	-9.18859
pher	-9.19098
▁Things	-9.19112
▁expressvpn	-9.19113
dark	-9.19117
Stranger	-9.19135
K	-9.1915
1208	-9.1917
▁rmdir	-9.19909
▁work	-9.19942
▁[	-9.20451
▁connect	-9.20932
▁bare	-9.21028
▁notify	-9.21058
▁wordlist	-9.21229
_03	-9.21284
▁error	-9.21284
06	-9.21287
miracledb	-9.21336
8.	-9.21353
_2.	-9.21416
xvf	-9.21755
backup	-9.21848
logs	-9.21891
fonts	-9.21929
▁sys	-9.22033
supervisor	-9.22058
▁RPORT	-9.22065
▁core	-9.22067
18	-9.2208
▁getinfo	-9.22105
▁nmbd	-9.22137
controller	-9.22166
▁hash	-9.22518
Trinity	-9.22618
dirs	-9.22826
blocks	-9.22985
▁week	-9.23191
ui	-9.23258
▁thun	-9.23574
▁unset	-9.23582
xinitrc	-9.23584
▁"#	-9.23681
puf	-9.23717
fi	-9.23772
▁project	-9.23813
▁fork	-9.23921
▁puppet	-9.24043
examples	-9.2421
sigc	-9.2434
menu	-9.24519
upgrade	-9.24951
prod	-9.24988
Christ	-9.25106
Z	-9.25107
leti	-9.25129
search	-9.25678
group	-9.2572
kodi	-9.2573
alas	-9.25808
ldif	-9.25902
Syu	-9.25974
▁the	-9.26184
host	-9.26259
03	-9.26329
▁plan	-9.26387
bidder	-9.26482
ra	-9.26491
auto	-9.26517
tests	-9.26529
pip	-9.26549
ref	-9.26605
▁settings	-9.26637
▁enable	-9.26665
▁hosts	-9.26749
cdetect	-9.26752
▁../../../	-9.27013
09	-9.2766
job	-9.27841
pan	-9.2794
▁ex	-9.28051
▁bc	-9.28146
core	-9.2815
onopka	-9.28238
▁fdisk	-9.28262
▁cis	-9.28281
▁tg	-9.28998
▁tests	-9.29124
swp	-9.29797
▁slurm	-9.29851
left	-9.29854
idad	-9.29936
Syyu	-9.29947
9.	-9.29968
▁az	-9.30367
[	-9.30431
uk	-9.30543
trunk	-9.3058
storage	-9.30587
▁mo	-9.30749
▁fg	-9.30767
system	-9.31083
▁7	-9.31409
trinity	-9.3142
▁avahi	-9.31468
▁clienbluetooth	-9.31483
▁display	-9.31849
Users	-9.31907
▁makefile	-9.31983
pc	-9.32133
▁date	-9.32173
▁playbooks	-9.32327
dist	-9.32334
PE	-9.324
▁archives	-9.32429
▁ws	-9.32822
Controller	-9.33093
▁Ma	-9.33108
models	-9.33122
▁qsub	-9.33144
ch	-9.33235
men	-9.33237
▁IndiGo	-9.33252
▁uniq	-9.33519
▁page	-9.33755
▁django	-9.33773
sudoers	-9.33803
▁scanner	-9.33827
▁debug	-9.34366
▁'{	-9.34635
▁debian	-9.34653
access	-9.34817
signal	-9.34828
▁qstat	-9.34835
327	-9.34903
▁power	-9.35023
@10.1.26.9:	-9.35033
im	-9.35294
read	-9.35368
mon	-9.3547
▁22.	-9.35503
cat	-9.3564
111	-9.35658
001.	-9.35956
▁package	-9.36034
do	-9.36148
000	-9.36155
Pn	-9.3627
▁print	-9.36475
oread	-9.36537
native	-9.36552
64	-9.3677
14	-9.36845
$	-9.36863
stat	-9.36904
sites	-9.36949
▁awk	-9.37015
metriks	-9.37417
co	-9.37424
yy	-9.3757
cli	-9.37621
origins	-9.37684
▁iwlist	-9.38295
28	-9.38346
lg	-9.3849
ff	-9.38509
the	-9.38545
▁workspace	-9.38943
▁count	-9.38943
▁M	-9.39024
▁apply	-9.39048
▁exception	-9.39179
copy	-9.39263
22	-9.39348
site	-9.39451
▁openssl	-9.39566
package	-9.39731
▁container	-9.40072
▁stopwatchui	-9.40076
dados	-9.40078
▁pnpm	-9.40079
▁trinity	-9.40141
vagrant	-9.4016
6-	-9.40278
▁es	-9.40331
▁darwin	-9.40713
OUT	-9.40973
▁storage	-9.41058
ingleOneLane	-9.41109
theme	-9.41422
▁host	-9.41466
=/	-9.41493
▁80	-9.41521
rt	-9.41535
fs	-9.41539
2"	-9.4163
▁0.0.0.0:2056	-9.41882
▁atividade	-9.41882
▁convert	-9.41882
▁submit	-9.41883
▁usermod	-9.42092
initial	-9.42245
man	-9.42439
null	-9.428
Eva	-9.42804
▁kp	-9.42819
find	-9.42946
▁kodi	-9.42983
▁day	-9.43028
ext	-9.43049
12	-9.43059
▁||	-9.43311
wc	-9.4345
ss	-9.43634
black	-9.43685
Publish	-9.43725
integration	-9.43725
noconfirm	-9.43727
center	-9.43782
▁nagios	-9.43952
1"	-9.44582
▁rsa	-9.44629
▁tcpdump	-9.44663
mesos	-9.4482
▁genesys	-9.44914
srv	-9.45201
vi	-9.45244
▁modules	-9.45514
date	-9.4554
▁{}	-9.45585
▁yay	-9.45614
▁dig	-9.45758
▁frame	-9.45826
error	-9.46377
daemon	-9.46754
desktop	-9.46757
ut	-9.46975
ht	-9.47201
▁john	-9.47394
reb	-9.474
▁views	-9.47443
▁yii	-9.47713
cuda	-9.47746
acct	-9.47778
▁free	-9.47856
▁litecoin	-9.47964
54	-9.48118
▁generate	-9.48235
stream	-9.48246
▁B	-9.48389
▁parse	-9.48401
▁abc	-9.48423
▁r	-9.48559
zf	-9.48676
▁tcp	-9.48857
▁polybar	-9.48913
girl	-9.49024
▁sqlmap	-9.4949
workspace	-9.49738
digi	-9.49817
▁chsh	-9.49898
▁17	-9.50144
named	-9.50341
sn	-9.50409
▁wpa	-9.50449
▁4444	-9.50572
darwin	-9.50745
▁juego	-9.51459
libattr	-9.51469
▁\	-9.5164
▁single	-9.51748
▁advanced	-9.51765
▁rbenv	-9.518
_2019_15107.	-9.51892
200	-9.51905
▁sample	-9.52112
std	-9.52253
▁smb	-9.52261
manual	-9.52531
▁attach	-9.52593
control	-9.52784
conky	-9.5281
04	-9.52823
▁00_	-9.52856
▁import	-9.53014
mac	-9.53074
▁600	-9.53319
▁23	-9.53382
ee	-9.53471
oju	-9.53495
TC	-9.53674
▁raspi	-9.53685
phase	-9.53825
Desktop	-9.53841
▁tag	-9.53914
▁k	-9.53922
▁rebase	-9.54036
▁samba	-9.54059
▁route	-9.54289
▁fi	-9.54456
timing	-9.54521
sbin	-9.54676
▁backup	-9.54833
gtk	-9.54869
box	-9.54937
▁psybnc	-9.54945
*"	-9.55151
▁results	-9.55187
264	-9.5528
▁Com	-9.55344
▁is	-9.55434
▁br	-9.55475
Y	-9.55515
▁dhru	-9.55564
▁aschaeffer	-9.5559
▁L	-9.55714
▁stage	-9.55782
▁rmi	-9.55864
more	-9.55964
dns	-9.56066
▁command	-9.56383
pg	-9.5644
%	-9.56485
image	-9.56584
26	-9.56588
▁fastqc	-9.56653
&	-9.56989
99	-9.57049
▁on	-9.57109
wordlists	-9.57395
cargo	-9.57459
row	-9.57488
launch	-9.57635
▁alice	-9.57678
▁access	-9.57688
UI	-9.57729
rsub	-9.57854
teste	-9.58043
utils	-9.58071
comandos	-9.58103
▁bootstrap	-9.58154
lend	-9.58176
networking	-9.5822
▁private	-9.58285
▁co	-9.58309
▁Gemfile	-9.58754
application	-9.58817
86	-9.59197
▁tools	-9.5932
▁mpd	-9.59387
xf	-9.5956
dht	-9.5967
machine	-9.5984
isiseqruns	-9.5984
▁snmpwalk	-9.59841
▁ucln	-9.59841
▁both	-9.59845
▁netctl	-9.59859
▁Axo	-9.59927
▁thes	-9.60064
▁kitchen	-9.60098
▁auto	-9.60099
▁cc	-9.60107
defs	-9.60122
▁svc	-9.60175
te	-9.60386
deb	-9.60395
16	-9.60424
extra	-9.60538
hd	-9.60551
▁!	-9.60569
uroot	-9.60602
perl	-9.60622
W	-9.61049
connector	-9.61232
▁123	-9.61265
ly	-9.61453
awk	-9.61467
▁gs	-9.61796
mobilehd	-9.6186
05	-9.6199
VARIAVEL	-9.62051
quota	-9.62051
amend	-9.62072
▁firefox	-9.62168
▁variables	-9.62224
pianobar	-9.62585
▁apple	-9.62624
▁etc	-9.62748
source	-9.62879
▁Data	-9.62925
radio	-9.63177
II	-9.63233
▁bor	-9.63326
sda	-9.63571
▁rpm	-9.63744
redis	-9.63755
stackrc	-9.63872
▁m	-9.63968
chrome	-9.64065
▁palin	-9.64099
▁lms	-9.64173
mpd	-9.64295
▁bzImage	-9.64311
▁cucumber	-9.64311
▁geany	-9.64311
hwmon	-9.64313
lampp	-9.64314
2012.	-9.64338
▁sshd	-9.64345
BF	-9.64388
stocks	-9.64407
▁ncmpcpp	-9.6444
installer	-9.64565
auth	-9.6461
▁seman	-9.64668
stoogecalls	-9.64897
added	-9.64995
App	-9.65035
war	-9.65246
fe	-9.65389
▁urxvt	-9.6546
▁helabasa	-9.65461
▁ag	-9.65531
:8080	-9.65538
▁saiyuuki	-9.65571
▁and	-9.65669
wordlist	-9.65678
mail	-9.65947
▁text	-9.66008
▁sensor	-9.66075
da	-9.66441
hash	-9.66494
1.1	-9.66615
mAu	-9.66691
="	-9.6693
_5	-9.67034
hard	-9.67208
13_	-9.6722
babymarvel	-9.67258
debug	-9.67282
shef	-9.67336
▁addr	-9.6738
▁namd	-9.67528
sources	-9.67666
▁link	-9.67718
2_	-9.6778
gateway	-9.67799
▁rsync	-9.67805
▁700	-9.67841
▁zip	-9.67848
▁os	-9.67903
▁hive	-9.67906
pcap	-9.67969
stuff	-9.68311
polybar	-9.68471
▁deluge	-9.68923
▁validate	-9.6899
▁msfconsole	-9.68991
▁ApplyLoan	-9.69022
▁sftp	-9.69033
▁vendor	-9.6923
▁overcloud	-9.69234
zsh	-9.69268
775	-9.69293
▁useradd	-9.69319
▁policy	-9.69356
▁process	-9.6944
sd	-9.69546
▁stoogecalls	-9.69576
▁pop	-9.69585
dcs	-9.69789
5-	-9.69794
▁mongodb	-9.69804
▁10.1.26.0/24	-9.70195
▁ftp	-9.70236
▁cmake	-9.70321
▁Videos	-9.70344
▁journal	-9.70417
40	-9.7057
▁In	-9.70739
cpu	-9.70846
export	-9.70961
rv	-9.71151
▁example	-9.71372
vertFastqToFasta	-9.71414
▁Contact	-9.71414
▁dmcli	-9.71416
:2011-	-9.71417
▁Bi	-9.71428
1403	-9.71479
(0	-9.71526
2011/	-9.71904
▁time	-9.71975
ap	-9.72392
zxv	-9.72542
eprint	-9.72996
secrets	-9.73006
▁reload	-9.73032
▁T	-9.73082
10.	-9.73114
80	-9.73174
▁pianobar	-9.73301
▁interfaces	-9.73341
develop	-9.73385
rustc	-9.7342
0911	-9.73432
sort	-9.73631
▁you	-9.73761
▁Trabalho	-9.73899
▁rrdtool	-9.73899
▁eRT	-9.73903
bot	-9.73926
▁vbox	-9.73942
▁h	-9.74197
boto	-9.74217
▁myfile	-9.74275
▁The	-9.74358
▁Hello	-9.74481
▁version	-9.74568
▁WEB	-9.74569
plugins	-9.7465
▁tmux	-9.74856
done	-9.7488
#	-9.74899
07	-9.74921
Add	-9.75104
▁fs	-9.75112
pem	-9.7519
▁exit	-9.75215
pro	-9.75479
▁element	-9.75552
37	-9.75666
ale	-9.75667
aca	-9.75741
hal	-9.75763
nfo	-9.75899
▁global	-9.75909
▁networking	-9.75955
hacking	-9.76037
runtime	-9.7615
▁Test	-9.76169
Ron	-9.76285
▁game	-9.76338
ungeon	-9.76447
▁lctro	-9.76447
▁feh	-9.76457
11/	-9.76466
▁'*'	-9.76517
▁Player	-9.76548
repos	-9.76592
vars	-9.76607
▁"*	-9.76609
archive	-9.76901
_1_1.	-9.76916
po	-9.76979
▁book	-9.77024
mongod	-9.77209
release	-9.77308
()/	-9.7746
▁sha	-9.77529
gnome	-9.77577
▁baidu	-9.77657
▁research	-9.77776
ve	-9.77782
▁no	-9.778
88	-9.77875
▁api	-9.78242
MP	-9.78644
▁My	-9.78648
google	-9.78674
▁postgres	-9.7906
▁zerador	-9.79061
▁oqissofaz	-9.79061
▁DNS	-9.79061
▁PivotIndex	-9.79061
▁stulogin	-9.79061
jobshop	-9.79065
▁expose	-9.79066
nbluetooth	-9.7908
▁gisteren	-9.79142
odest	-9.7938
wx	-9.79434
▁ad	-9.7955
▁assignment	-9.79593
▁bind	-9.79765
▁dotfiles	-9.79791
▁create	-9.79819
socket	-9.79872
▁account	-9.79977
shell	-9.79988
upstream	-9.80025
maven	-9.80049
▁*~	-9.80089
about	-9.80126
▁port	-9.80133
▁fc	-9.80297
▁ovs	-9.80305
▁do	-9.80329
available	-9.80394
▁doc	-9.80511
▁alias	-9.80598
▁virtualenv	-9.80848
▁type	-9.80913
for	-9.80945
ation	-9.81377
▁{	-9.81385
▁stack	-9.81412
small	-9.81425
▁files	-9.81452
param	-9.81479
pir	-9.81692
slamont	-9.81745
SHELL	-9.81746
HOJE	-9.81746
▁static	-9.8175
properties	-9.81753
tool	-9.82175
▁ch	-9.8221
▁bitbucket	-9.82233
▁devise	-9.82233
ts	-9.82433
fasta	-9.82496
▁purge	-9.82543
PT	-9.82668
full	-9.82757
nagios	-9.82782
eve	-9.8281
page	-9.82854
board	-9.8286
shared	-9.82961
cs	-9.83012
Class	-9.83098
Password	-9.83115
end	-9.83294
li	-9.8335
binary	-9.83409
▁locale	-9.8342
ni	-9.83453
otion	-9.83484
▁clonesto	-9.83562
▁bjohnston	-9.83614
mainline	-9.83636
48	-9.83757
ja	-9.83878
64.	-9.8407
part	-9.84191
▁pali	-9.84367
webentwicklung	-9.84504
Device	-9.84504
batch	-9.84506
cyg	-9.84522
▁iotmp	-9.84539
▁vuln	-9.84615
▁apachectl	-9.84682
me	-9.84842
▁18	-9.84889
▁int	-9.84943
▁write	-9.85128
ins	-9.85285
▁cache	-9.85296
▁feature	-9.85428
addon	-9.85483
result	-9.85622
xz	-9.85909
▁requirements	-9.85913
bon	-9.85981
cens	-9.86008
49	-9.86125
▁fast	-9.86184
sudo	-9.8619
int	-9.86205
▁zcat	-9.86318
▁en	-9.86321
4-8	-9.86322
work	-9.86372
min	-9.86376
ctf	-9.86416
/{	-9.86456
▁big	-9.86544
uE	-9.86554
loop	-9.86608
7/	-9.8663
tog	-9.86866
br	-9.87099
pm	-9.87261
▁relacao	-9.87341
Example	-9.87341
▁clm	-9.87411
viminfo	-9.87488
▁dd	-9.87624
44	-9.87714
smb	-9.87818
▁ed	-9.87839
ri	-9.87966
▁of	-9.88199
arp	-9.88209
Rf	-9.88223
▁TF	-9.88242
gt	-9.88368
▁button	-9.88489
mikec	-9.88523
echo	-9.88548
digital	-9.88594
refactor	-9.88791
as	-9.88806
▁eclipse	-9.88845
▁24	-9.88866
conso	-9.8887
editor	-9.88899
▁network	-9.89585
prm	-9.89592
apps	-9.89621
SS	-9.89631
ers	-9.89639
act	-9.89689
ios	-9.89881
▁clonest	-9.89963
axo	-9.90089
▁de	-9.90135
qualif	-9.90259
▁arqtrab	-9.90261
▁iwconfig	-9.90263
▁firebase	-9.90265
90	-9.90405
▁nvim	-9.90433
▁1.9.2	-9.90452
_*	-9.90559
if	-9.90623
rvm	-9.90682
play	-9.90908
▁stat	-9.91008
▁mail	-9.91031
▁mini	-9.91087
39	-9.91099
▁vmware	-9.91131
lumin	-9.91245
secret	-9.91323
34	-9.9134
prefix	-9.91502
blue	-9.91523
snap	-9.91527
▁syslog	-9.91533
variables	-9.91544
locate	-9.91551
trace	-9.91602
▁prod	-9.91609
▁tool	-9.91703
juraj	-9.91754
▁192.168.0.1	-9.91756
port	-9.9181
yb	-9.91913
zshrc	-9.92049
▁origins	-9.92061
link	-9.92151
gi	-9.92193
▁PATH	-9.92218
ne	-9.92279
▁j	-9.92284
45	-9.92326
tr	-9.92344
▁basi	-9.9238
78	-9.92463
='	-9.92521
▁arch	-9.92544
▁media	-9.92584
▁boost	-9.92716
string	-9.93054
right	-9.93107
gitlab	-9.93143
Videos	-9.93176
▁webapps	-9.93177
Workspaces	-9.93269
chrys	-9.93273
fjad	-9.93273
▁00_3_	-9.93342
▁10.1.17.4	-9.93363
\'	-9.93384
red	-9.93413
▁${	-9.93773
▁line	-9.93926
▁nexus	-9.94138
▁examples	-9.94201
▁alan	-9.94259
url	-9.94282
▁gpg	-9.94307
agent	-9.94632
firefox	-9.94645
kernel	-9.94653
ruby	-9.94655
30	-9.94688
▁objdump	-9.94807
01/	-9.94816
nome	-9.9486
";	-9.94954
▁routes	-9.95133
Os	-9.95176
▁sd	-9.95243
ck	-9.95271
123	-9.95316
▁target	-9.95342
▁J	-9.95368
eb	-9.9538
dat	-9.95398
sample	-9.95573
▁PG	-9.95599
su	-9.9564
▁neigh	-9.95683
team	-9.95685
84	-9.95827
▁stream	-9.95993
▁pi	-9.96016
38	-9.96177
table	-9.96208
video	-9.96233
hive	-9.9636
libraries	-9.9637
@49.212.221.146	-9.9637
pricing	-9.9637
▁0.0.0.0:11	-9.9637
\0057\0056	-9.9637
mythtv	-9.9637
itations	-9.96374
▁js	-9.96404
58	-9.96464
▁sim	-9.96483
cmake	-9.96588
▁maestro	-9.96632
wallpapers	-9.96636
24.	-9.96649
▁groups	-9.96729
▁wine	-9.96744
alis	-9.96941
mailer	-9.97181
▁atom	-9.97326
schema	-9.9751
▁mongo	-9.97558
59	-9.97613
▁pulsar	-9.97631
▁le	-9.97701
exe	-9.97707
ine	-9.97776
upload	-9.97888
issue	-9.9795
location	-9.97958
nmshd	-9.97963
▁cve	-9.98012
▁MateusStahelin	-9.98055
size	-9.98092
▁res	-9.98104
ab	-9.98124
ion	-9.98297
76	-9.98374
▁ax	-9.98383
▁grafana	-9.98503
▁tree	-9.9856
▁mvn	-9.98644
▁net	-9.98813
xorg	-9.98884
▁lightdm	-9.98897
▁Code	-9.98925
helper	-9.98972
▁Music	-9.9901
▁rc	-9.99184
tutorial	-9.99464
webappcreations	-9.9957
Evita	-9.9957
known	-9.9957
ubscribe	-9.99571
se	-9.99574
rsyslog	-9.9962
▁archive	-9.99658
▁learning	-9.99678
cls	-9.99693
▁mysqld	-9.99722
▁dhclient	-9.99743
thes	-9.9977
▁psql	-9.99807
▁tee	-9.99909
)/	-9.99926
71	-9.99935
27	-9.99981
▁zsh	-10.0005
fu	-10.0015
strings	-10.0021
▁Build	-10.0026
▁dmesg	-10.0035
EP	-10.0036
ea	-10.0048
session	-10.0049
ng	-10.0052
0.1	-10.0058
^	-10.0061
style	-10.0076
▁Pictures	-10.0099
▁td	-10.0103
▁configuration	-10.011
eclipse	-10.0115
VIM	-10.0121
ftp	-10.0122
damon	-10.0137
▁postgresql	-10.014
▁%	-10.0145
("	-10.015
-2019-15107	-10.0153
▁I	-10.0166
day	-10.0166
▁socket	-10.0168
▁car	-10.0168
bots	-10.017
fastqc	-10.019
ep	-10.0196
rn	-10.0214
tter	-10.0245
▁message	-10.0252
dunst	-10.0276
av	-10.028
Admin	-10.028
Acer	-10.0283
est	-10.0284
xdg	-10.0286
Iosevka	-10.0288
▁autoremove	-10.0288
▁grading	-10.029
wins	-10.0304
▁gdb	-10.0306
step	-10.0329
blink	-10.0332
luser	-10.0342
▁perlbrew	-10.0342
gpu	-10.0342
systemd	-10.0353
▁pwd	-10.0357
▁boot	-10.0358
themes	-10.0361
▁tf	-10.0368
@10.1.26.9:/	-10.0374
▁aws	-10.038
4747	-10.0383
etree	-10.0402
word	-10.0409
services	-10.0413
▁cuda	-10.0418
termite	-10.0454
pic	-10.0455
kuehn	-10.0457
▁stepper	-10.0457
babl	-10.0457
static	-10.0458
per	-10.0464
ffserver	-10.0468
rails	-10.047
vm	-10.0487
stable	-10.0502
devel	-10.0515
▁graph	-10.0525
93.	-10.0579
▁nome	-10.0605
browse	-10.0605
▁lo	-10.061
air	-10.0612
sm	-10.0618
helenluciany	-10.063
▁lightsensor	-10.063
▁$2}'	-10.063
▁nvcc	-10.063
▁ufw	-10.063
alh	-10.063
htaccess	-10.0631
avahi	-10.0633
▁heat	-10.0633
hadoop	-10.0633
operator	-10.0633
max	-10.0637
▁nautilus	-10.0637
icons	-10.0646
▁sz	-10.068
▁briq	-10.0683
▁named	-10.0696
▁0.0.0.0	-10.07
▁F	-10.0701
▁practice	-10.0704
▁ro	-10.0719
▁HWI	-10.0733
▁je	-10.0739
vifm	-10.0754
sshd	-10.0756
seeds	-10.0761
rw	-10.077
account	-10.0773
chl	-10.0786
{	-10.0786
ko	-10.0789
▁sum	-10.0803
▁controllers	-10.0804
green	-10.0805
DNA	-10.0805
@10.1.26.9:~/	-10.0807
neos	-10.0807
2526	-10.0808
awesome	-10.0809
Python	-10.0809
feature	-10.0811
cloud	-10.0811
cvf	-10.0817
▁tldr	-10.0825
▁qa	-10.0833
ate	-10.084
btool	-10.0842
▁grub	-10.0843
hostname	-10.0844
-8	-10.0849
nx	-10.0853
gate	-10.0854
64/	-10.0861
)"	-10.0876
prop	-10.0896
>	-10.0918
ir	-10.0938
xbacklight	-10.0957
▁eval	-10.0977
▁0.0.0.0:80	-10.0983
alertas	-10.0984
▁AStarTester	-10.0984
▁facute	-10.0984
▁%%_	-10.0984
normal	-10.0984
▁virtualbox	-10.0984
onster	-10.0984
▁leandro	-10.0984
tdb	-10.0984
limit	-10.0986
▁jq	-10.0987
diessbacher	-10.0988
▁xdg	-10.0988
coding	-10.0988
▁2234	-10.0989
FastQC	-10.099
Movies	-10.0992
▁resolve	-10.0993
include	-10.0993
README	-10.0994
▁fact	-10.0995
tcp	-10.1001
36	-10.1004
sT	-10.1004
layouts	-10.1012
▁sacha	-10.1014
then	-10.1016
pr	-10.102
▁register	-10.102
open	-10.102
some	-10.1024
-4	-10.1025
▁rules	-10.103
▁H	-10.1033
oom	-10.1041
allow	-10.1043
age	-10.1078
comm	-10.1093
gitconfig	-10.1116
exploit	-10.1135
▁nodejs	-10.1157
▁require	-10.1165
Firmware	-10.1165
fantasticiot	-10.1165
terminal	-10.1165
lorasender	-10.1165
5555	-10.1166
▁pwm	-10.1168
bluegreen	-10.1174
configuration	-10.1178
baidu	-10.1178
eval	-10.1178
Makefile	-10.1179
▁@:	-10.1182
1306/	-10.1183
ovs	-10.1184
ham	-10.1194
▁zx	-10.1201
ill	-10.1208
86_64.	-10.1217
bn	-10.1224
▁pylast	-10.1235
-45	-10.1245
ent	-10.1266
▁W	-10.1276
ws	-10.1281
mat	-10.1285
▁copy	-10.1287
▁14	-10.1287
▁delete	-10.1296
lace	-10.1297
mir	-10.1301
1.0	-10.1308
ge	-10.1309
▁math	-10.132
manag	-10.133
cached	-10.1332
color	-10.1334
/*.	-10.1337
-03-	-10.1342
patch	-10.1343
datastructthingy	-10.1351
▁diretorio	-10.1351
volt	-10.1351
qualifying	-10.1352
▁22476	-10.1352
head	-10.1358
▁while	-10.1362
directory	-10.1362
leak	-10.1364
topic	-10.1364
game	-10.1367
▁TR	-10.1374
▁hostname	-10.1376
6_	-10.1386
▁Public	-10.1405
RNA	-10.1407
▁features	-10.1409
US	-10.1413
▁mode	-10.1416
gcc	-10.1418
▁toto	-10.1432
55	-10.1436
acpi	-10.1437
bu	-10.1443
▁lp	-10.1448
▁software	-10.1451
▁gccc	-10.1464
ru	-10.1466
ibrary	-10.1471
iso	-10.1481
▁string	-10.1494
pages	-10.1496
ww	-10.151
05.	-10.1515
CGI	-10.1539
▁VeriSense	-10.1539
IC	-10.154
32-	-10.154
COM	-10.1541
misc	-10.1543
▁ee	-10.1549
ME	-10.1552
▁mydata	-10.156
options	-10.1561
assets	-10.1568
▁ju	-10.1569
compiler	-10.1577
▁usr	-10.1584
▁who	-10.1589
▁gustav	-10.1591
be	-10.1597
SN	-10.1601
IT	-10.1622
rtf	-10.1641
den	-10.1641
▁Project	-10.1645
jsp	-10.1646
gene	-10.1662
controllers	-10.1669
ntp	-10.1673
Of	-10.1678
number	-10.169
envs	-10.1691
▁sca	-10.171
▁lhost	-10.1713
tags	-10.1721
96	-10.1726
▁seeds	-10.1729
7-04-26_14-06-44	-10.1732
Recog	-10.1732
components	-10.1732
▁FORWARD	-10.1732
▁redshift	-10.1732
▁attributes	-10.1732
▁fran	-10.1732
maior	-10.1734
cutoffpredictor	-10.1736
CPA	-10.174
ide	-10.1746
7_	-10.1748
_1_1/	-10.1751
▁chromium	-10.1757
pdr	-10.1757
nu	-10.1762
▁Whi	-10.1774
▁what	-10.1775
1306.	-10.1778
IN	-10.1798
▁vnc	-10.1804
gw	-10.1809
archives	-10.182
lst	-10.184
LD	-10.1844
led	-10.1845
105	-10.1859
▁webserver	-10.1875
ink	-10.1877
fastq	-10.1879
password	-10.1884
ropbox	-10.1886
▁G	-10.1887
▁dump	-10.1895
▁2224	-10.1912
sdc	-10.1916
▁group	-10.1921
ha	-10.1925
ku	-10.1926
First	-10.1928
silar	-10.1928
valid	-10.1928
USER	-10.1928
▁./**/	-10.1929
crash	-10.1929
alt	-10.194
▁revert	-10.1951
▁q	-10.1951
term	-10.1952
ble	-10.1953
100	-10.1953
single	-10.1955
ang	-10.1965
▁flag	-10.1975
img	-10.1978
case	-10.198
95	-10.1982
cdrom	-10.1991
func	-10.1996
▁program	-10.2009
rwx	-10.2023
=$	-10.2031
FI	-10.2037
kill	-10.2043
▁aravind	-10.2052
▁control	-10.2064
▁rust	-10.2069
neve	-10.208
87	-10.2096
di	-10.21
template	-10.2113
74	-10.2124
torrent	-10.2126
bigbang	-10.2128
yuuki	-10.2128
compute	-10.2128
▁4096	-10.2128
▁LPORT	-10.2128
▁circle	-10.2129
2.3.0	-10.2129
18.	-10.2132
Out	-10.2135
▁ora	-10.2138
hoje	-10.214
xft	-10.2154
dict	-10.2154
dashboard	-10.2156
▁dhcpcd	-10.2168
ince	-10.2172
eg	-10.2174
▁logstash	-10.2183
not	-10.2197
umin	-10.2207
161/	-10.223
2017	-10.2232
▁Y	-10.2257
.31	-10.2274
▁thread	-10.2288
orig	-10.2318
▁DI	-10.2326
▁dotnet	-10.2332
depth	-10.2336
ay	-10.2338
bo	-10.234
▁Card	-10.2341
create	-10.2342
ecy	-10.2346
math	-10.2347
▁trunk	-10.2353
connect	-10.2361
api	-10.2362
proxy	-10.2365
attacker	-10.2365
▁sakura	-10.2366
▁maven	-10.2392
▁targets	-10.2394
▁yo	-10.2398
AP	-10.2402
han	-10.2415
▁2019	-10.2416
▁exercise	-10.2432
pid	-10.2436
tables	-10.2458
▁win	-10.2459
▁header	-10.2479
▁chong	-10.2479
mdir	-10.2491
▁desktop	-10.2496
=2	-10.2498
4-	-10.2506
35	-10.2507
webapps	-10.2523
sed	-10.2524
Control	-10.254
Gene	-10.254
▁SmartCities	-10.254
▁grade	-10.254
BASE	-10.254
firmware	-10.254
▁Backups	-10.254
AFF	-10.2544
osa	-10.2545
les	-10.2549
▁^	-10.255
action	-10.2553
owt	-10.2553
▁Serv	-10.2557
pool	-10.2563
soft	-10.2574
Linux	-10.2576
juvenile	-10.2577
kids	-10.258
scanner	-10.2582
▁hpcc	-10.2582
bundle	-10.2583
Pictures	-10.2589
bus	-10.2602
bk	-10.2604
cluster	-10.2619
▁yes	-10.2662
▁array	-10.2664
erL	-10.2665
5/	-10.2683
CO	-10.2684
tu	-10.2712
Re	-10.2721
-2017-04-	-10.2733
57	-10.2736
▁te	-10.2737
▁Playbooks	-10.2753
▁auxiliary	-10.2753
▁abstract	-10.2753
keyring	-10.2753
▁cron	-10.2755
▁htop	-10.2756
:~/	-10.2766
▁rsyslog	-10.2766
▁shippable	-10.2774
tack	-10.2774
600	-10.2789
lohn	-10.2796
dunstrc	-10.2797
debian	-10.2798
button	-10.2799
ranger	-10.28
▁attr	-10.2801
reverse	-10.2803
usb	-10.2805
resources	-10.2805
suresh	-10.281
:80	-10.2813
adding	-10.2816
mem	-10.282
routes	-10.2821
▁about	-10.2824
ain	-10.2842
fix	-10.285
ot	-10.2852
ies	-10.2877
view	-10.288
essential	-10.2887
▁github	-10.289
ec	-10.2896
▁old	-10.2923
Web	-10.2925
▁assets	-10.2948
fold	-10.2953
types	-10.2962
sploit	-10.2969
▁86791	-10.297
_2016-2	-10.297
▁readbasic	-10.297
vsctl	-10.2971
1.920	-10.2971
obby	-10.2972
Xdefaults	-10.2973
guest	-10.2976
▁strace	-10.2979
▁ldr	-10.2981
ell	-10.2993
mm	-10.3007
▁ins	-10.3008
▁compose	-10.3013
100.	-10.3014
ffmpeg	-10.3019
console	-10.302
training	-10.3022
commands	-10.3026
rmate	-10.303
dao	-10.3035
nvx	-10.3036
▁aligned	-10.3038
fem	-10.3039
sysconfig	-10.3054
of	-10.3055
▁devices	-10.3057
cu	-10.3059
player	-10.3061
▁telegram	-10.3061
ttf	-10.3094
hb	-10.3111
aur	-10.3121
▁color	-10.3126
arm	-10.3132
target	-10.3159
2019	-10.3175
▁resources	-10.318
-5.0.0	-10.3192
Balneario	-10.3192
8.8.8	-10.3192
contentflow	-10.3193
cesar	-10.3194
desc	-10.3202
*'	-10.3202
syscoin	-10.3212
Me	-10.3214
▁fastQC	-10.323
svg	-10.3231
tty	-10.3232
postfix	-10.3243
second	-10.3244
random	-10.3245
Neos	-10.3246
▁lsof	-10.3247
tmux	-10.3247
django	-10.3247
▁oracle	-10.325
yum	-10.3251
namd	-10.3256
▁#	-10.3259
res	-10.3261
▁drupal	-10.3273
localhost	-10.3276
servers	-10.3281
mydata	-10.3286
vhosts	-10.3288
best	-10.3288
tg	-10.3291
▁babymarvel	-10.3297
2.1	-10.3298
▁ma	-10.3305
60	-10.331
▁lap	-10.3314
defaults	-10.3332
tic	-10.3345
▁cutoff	-10.3351
remove	-10.3362
light	-10.3369
▁ranger	-10.3373
cd	-10.3383
▁./*	-10.3413
BinarySearchTree	-10.342
TYPE	-10.342
transmi	-10.342
▁Django	-10.342
▁knife	-10.342
▁mynewbranch	-10.342
▁payload	-10.342
418.67	-10.342
Frensh	-10.342
▁fpga	-10.342
▁fswebcam	-10.342
▁userdel	-10.342
▁Done	-10.3421
0703	-10.3422
▁orgin	-10.3423
loraserver	-10.3423
_10.1.168	-10.3427
equil	-10.3431
environment	-10.3433
▁1926	-10.3435
gig	-10.3435
▁9	-10.3436
ICS	-10.3437
162	-10.3441
▁broadcom	-10.3446
pt	-10.3449
▁centos	-10.345
▁pulseaudio	-10.3466
geo	-10.3467
Software	-10.3478
generate	-10.348
8-	-10.349
▁calc	-10.3495
▁switch	-10.3499
▁xorg	-10.3511
▁from	-10.3515
ow	-10.3516
▁blog	-10.354
▁ni	-10.3543
state	-10.3548
▁AxoMikeTest	-10.3555
▁syscoin	-10.3563
commons	-10.358
8.238.	-10.3595
▁Neos	-10.3596
branches	-10.363
26_13-32-02_	-10.3631
2011	-10.364
are	-10.3644
rio	-10.3649
gradle	-10.3652
haozi	-10.3652
▁flatpak	-10.3652
jonas	-10.3652
▁lynx	-10.3652
Sign	-10.3652
Command	-10.3653
▁monster	-10.3654
▁ffserver	-10.3654
address	-10.3655
▁glafkv	-10.3659
Ex	-10.366
ttn	-10.3667
▁false	-10.3671
snmp	-10.3688
Files	-10.3693
proto	-10.3708
community	-10.3716
count	-10.3717
use	-10.3717
▁ru	-10.3718
nohup	-10.3719
archlinux	-10.372
context	-10.3733
▁dc	-10.3733
analysis	-10.3734
apply	-10.3739
th	-10.3758
▁16	-10.3772
oku	-10.378
back	-10.3783
abs	-10.3789
bd	-10.3801
▁fix	-10.3805
▁1000	-10.3806
addons	-10.3819
ren	-10.3821
PS	-10.3823
▁ffmpeg	-10.3837
hq	-10.3839
kit	-10.3842
ning	-10.3874
sC	-10.3875
serial	-10.3886
MTA	-10.389
RELEASE	-10.389
▁coelho	-10.389
▁qlcoder	-10.389
143.16	-10.3891
exchange	-10.3891
commander	-10.3892
scope	-10.3892
webcam	-10.3893
internal	-10.3894
kp	-10.3894
▁he	-10.3897
▁signal	-10.3899
ssl	-10.3904
▁simnao	-10.3905
▁evolution	-10.3905
▁userdata	-10.3905
()"	-10.3906
▁123|	-10.3909
lah	-10.3909
Syy	-10.3911
▁lamp	-10.3911
_1_2	-10.3914
unlink	-10.3914
CIS	-10.3915
▁mymod	-10.3918
▁profiles	-10.392
▁cerebro	-10.3922
ho	-10.3925
▁testlink	-10.393
00.	-10.3933
94	-10.3935
any	-10.3947
▁launcher	-10.3956
whoami	-10.3959
ldap	-10.396
delete	-10.3961
chong	-10.3962
trabalho	-10.3962
docx	-10.397
70	-10.3994
▁dockerfile	-10.3998
iten	-10.4002
::	-10.4003
▁ssl	-10.4012
▁dh	-10.4013
▁av	-10.4032
▁disable	-10.4033
-1-	-10.4041
images	-10.4062
-2.15.2	-10.4069
synch	-10.4074
▁edx	-10.4098
▁64	-10.4108
17.	-10.4117
ter	-10.4119
pose	-10.412
▁client	-10.4122
▁urls	-10.4127
ignite	-10.4134
▁flask	-10.4134
xsession	-10.4137
79	-10.4141
metrics	-10.4142
▁\;	-10.4144
ya	-10.415
▁spark	-10.4168
▁8080	-10.4168
past	-10.4183
forms	-10.4206
sync	-10.4208
openjdk	-10.4211
output	-10.4212
clean	-10.4213
learn	-10.4213
▁.*	-10.4216
fn	-10.4221
▁typo	-10.4223
sta	-10.4229
hs	-10.4234
▁ci	-10.4237
8_	-10.4257
▁3-1	-10.4277
eTest	-10.4281
98	-10.4285
▁mobile	-10.4287
rpm	-10.429
car	-10.4306
tt	-10.4306
report	-10.431
▁sam	-10.431
▁back	-10.4311
▁bundler	-10.4311
▁suresh	-10.4334
▁android	-10.4337
▁kids	-10.4337
24_	-10.4344
cert	-10.4348
shift	-10.4359
ping	-10.4365
bit	-10.4367
oy	-10.4367
35.	-10.4369
white	-10.4382
space	-10.4383
▁lua	-10.4384
▁relacaonumeros	-10.4384
jayson	-10.4384
jwaspin	-10.4384
▁createsuperuse	-10.4384
▁waitpid	-10.4384
▁alarm	-10.4385
▁mcedit	-10.4385
Table	-10.4391
Sy	-10.4392
▁mysqldump	-10.4393
Ahead	-10.4394
▁wicd	-10.44
dirac	-10.4402
=./	-10.4409
(	-10.4416
pre	-10.442
voy	-10.4424
▁scrobble	-10.4427
:$	-10.443
▁autoconf	-10.4436
dpkg	-10.444
4_	-10.4444
▁dummy	-10.4444
▁HW	-10.4448
you	-10.4455
deploy	-10.4463
ary	-10.4464
GrovePi	-10.4465
cutoff	-10.4467
pacman	-10.4469
mats	-10.4483
710	-10.4492
Ir	-10.4492
+1	-10.4504
proj	-10.451
Greate	-10.4519
256	-10.4535
ical	-10.4545
▁gtk	-10.4552
!	-10.4557
zap	-10.4563
▁archlinux	-10.4578
▁daemon	-10.4587
contents	-10.4593
digit	-10.4611
32/	-10.4612
▁css	-10.462
\\	-10.4635
goalador	-10.4641
sandbox	-10.4641
snippets	-10.4641
dispatch	-10.4643
ant	-10.4665
vida	-10.4684
train	-10.4685
=0	-10.4697
▁STAR	-10.4698
errors	-10.4706
gunicorn	-10.4708
▁openssh	-10.4715
str	-10.4716
input	-10.4716
dump	-10.4722
▁Content	-10.4725
IF	-10.4726
Backend	-10.4729
queue	-10.4729
jdk	-10.473
Music	-10.4731
notify	-10.4732
▁theme	-10.4745
erb	-10.4745
checks	-10.4755
nt	-10.4759
_1_1	-10.4789
003.	-10.4793
BE	-10.4793
ny	-10.4801
gnu	-10.4801
tra	-10.4848
▁12	-10.4848
43	-10.4848
▁__	-10.4853
miracle	-10.4853
ak	-10.4855
▁function	-10.4861
900	-10.4863
▁content	-10.4865
▁course	-10.4881
dsa	-10.4893
▁2018	-10.4895
instance	-10.4896
View	-10.4903
▁exerci	-10.4903
turtle	-10.4904
FCMStream	-10.4904
▁destroy	-10.4904
continu	-10.4904
▁rndc	-10.4904
▁flush	-10.4904
rodinei	-10.4904
sleep	-10.4904
mqtt	-10.4904
▁*~`;	-10.4904
▁MyNew	-10.4904
xlsx	-10.4904
4911/	-10.4905
Event	-10.4906
▁myvenv	-10.4907
▁scanning	-10.4908
▁pom	-10.4911
srl	-10.4918
_2_2	-10.492
-36/	-10.4921
▁essi	-10.4924
▁806	-10.4927
backends	-10.4934
▁chars	-10.4934
▁45	-10.494
tores	-10.4944
▁vboxsf	-10.4949
prim	-10.497
qt	-10.497
}.	-10.4974
47	-10.4975
content	-10.4991
boost	-10.4995
Android	-10.5
▁stats	-10.5002
autoload	-10.5004
inc	-10.5007
support	-10.501
change	-10.5013
▁usertest	-10.5015
ted	-10.5019
On	-10.5027
▁666	-10.5032
▁employer	-10.504
▁rockyou	-10.5047
▁generation	-10.5062
One	-10.5064
syslog	-10.5066
osx	-10.5071
▁threads	-10.5075
tion	-10.508
rec	-10.5102
2.0	-10.5113
/24	-10.5118
oh	-10.5119
▁reverse	-10.5119
06_	-10.512
▁ldap	-10.5126
alan	-10.5127
▁track	-10.5128
▁34.	-10.5136
▁bla	-10.5137
19.	-10.5141
53	-10.5148
86_64	-10.5149
nw	-10.5164
sum	-10.5165
▁Make	-10.5166
crack	-10.5174
-2.4.47	-10.5174
speed	-10.5174
intermediate	-10.5174
AVA	-10.5174
▁deep	-10.5175
crt	-10.5178
▁password	-10.5181
Gann	-10.5182
AGE	-10.5182
generator	-10.5188
ols	-10.5189
hot	-10.519
▁geanclm	-10.5191
▁plugin	-10.5201
Con	-10.5215
▁rhosts	-10.522
75	-10.5227
63	-10.5231
▁metadata	-10.5259
▁Croatia	-10.5259
▁Report	-10.5264
with	-10.5266
guoding	-10.5277
mobile	-10.5277
multi	-10.5277
prune	-10.5278
puppet	-10.5279
scale	-10.5281
aravind	-10.5284
▁adduser	-10.529
router	-10.5294
ue	-10.5327
luster	-10.5344
▁akamai	-10.5354
nets	-10.5355
self	-10.5355
jp	-10.536
211	-10.5364
sumit	-10.5372
ID	-10.5382
▁console	-10.539
▁Do	-10.5391
itd	-10.5404
once	-10.5404
testing	-10.5405
sL	-10.5414
blacklist	-10.5422
▁]	-10.545
mission	-10.5452
micro	-10.5452
▁44.0.0.1	-10.5452
▁tornado	-10.5452
_4-28	-10.5452
▁netmiko	-10.5452
▁whodunit	-10.5452
DEV	-10.5452
Handler	-10.5452
▁pycharm	-10.5452
▁trabsacha	-10.5453
▁circ	-10.5455
mock	-10.5456
▁pico	-10.5456
DIRS	-10.5457
Webs	-10.5458
yada	-10.546
▁un	-10.5463
▁4-	-10.5468
tartu	-10.5472
▁neofetch	-10.5474
pass	-10.5485
ong	-10.5491
anon	-10.5499
34.	-10.5506
teven	-10.5511
numbers	-10.5515
OR	-10.5516
erif	-10.5524
-2.15.2/	-10.5527
rance	-10.5528
12:	-10.5539
headers	-10.5544
▁V	-10.5551
▁student	-10.5554
▁swift	-10.5559
abi	-10.5559
Java	-10.556
▁download	-10.5561
chapter	-10.5562
atom	-10.5567
Code	-10.5568
greet	-10.5568
Wh	-10.557
▁ton	-10.5576
bare	-10.5596
▁installed	-10.5599
one	-10.5611
ew	-10.5613
TF	-10.5617
import	-10.5617
92	-10.5629
bio	-10.563
▁deploy	-10.5641
▁phase	-10.5643
ports	-10.5648
-100	-10.5648
BC	-10.565
▁openjdk	-10.5651
▁400	-10.5659
202	-10.5659
▁cal	-10.5662
icon	-10.5663
▁training	-10.5674
▁world	-10.5687
▁mesos	-10.5689
▁func	-10.5699
▁mac	-10.5699
plymouthd	-10.5704
}"	-10.5711
▁view	-10.572
ex	-10.572
TERMCAP	-10.5738
▁emulate	-10.5738
_1_53_0	-10.5738
dependencies	-10.5738
▁NetworkManager	-10.5738
contrib	-10.5738
precompile	-10.5738
Dark	-10.5738
▁kvm	-10.5739
liveuser	-10.574
▁2>	-10.5747
tele	-10.5749
pack	-10.5752
▁intro	-10.5756
▁as	-10.5763
▁Flo	-10.5764
bug	-10.5766
▁age	-10.5766
hr	-10.5767
subtle	-10.5776
rp	-10.5777
▁migration	-10.5786
▁digital	-10.5791
▁loop	-10.5798
len	-10.5799
▁Web	-10.5801
nk	-10.5807
-1.9.1	-10.5811
▁mi	-10.5812
▁newfile	-10.5814
▁xil	-10.5833
\*	-10.5842
▁mikec	-10.5854
polipo	-10.5855
wait	-10.5857
endothelial	-10.5857
mjoe	-10.5858
generation	-10.5858
disable	-10.5858
AxoMikeTest	-10.5858
array	-10.5858
0.0.0.0	-10.5859
vmware	-10.5859
<	-10.5859
purge	-10.5859
lightdm	-10.5859
HWI	-10.5859
56	-10.5866
ric	-10.5871
Run	-10.5881
Pi	-10.5888
rT	-10.5903
▁mjoe	-10.591
custom	-10.5917
certs	-10.5917
able	-10.5938
hrome	-10.5939
_*.	-10.5943
▁utils	-10.5943
My	-10.5959
device	-10.5988
▁pdf	-10.5992
shop	-10.6009
ptrace	-10.6019
▁pipe	-10.6027
▁assign	-10.6029
xinit	-10.603
”	-10.6032
▁2>&1	-10.6032
▁TARGET	-10.6032
System	-10.6032
▁easy	-10.6032
After	-10.6032
laporan	-10.6032
mmcbl	-10.6032
Wallpaper	-10.6032
Italy	-10.6032
▁pwn	-10.6032
▁saveuser	-10.6032
gann	-10.6032
distance	-10.6033
INF	-10.6033
▁../../100	-10.6034
▁CV	-10.6036
▁bub	-10.6037
28-0	-10.6037
missing	-10.604
2-12.	-10.6043
▁devel	-10.6051
▁mocp	-10.6053
▁192.168.122.8	-10.6061
▁Act	-10.6061
igo	-10.6065
clock	-10.6065
▁fredai	-10.6071
▁discord	-10.6071
▁Controllers	-10.6074
▁num	-10.6075
jo	-10.6075
backlight	-10.6076
▁simple	-10.6078
▁rsem	-10.6082
BD	-10.6086
▁ne	-10.6091
pyPic	-10.6093
▁xml	-10.6094
fish	-10.6095
▁progress	-10.6103
util	-10.6108
▁ab	-10.6111
ance	-10.6117
▁dp	-10.6119
exiting	-10.612
▁mod	-10.6122
plugin	-10.6123
▁upstream	-10.6131
plymouth	-10.6131
▁Flask	-10.614
library	-10.6141
▁camp	-10.6144
▁tomas	-10.6145
▁tw	-10.6146
extras	-10.615
kali	-10.6161
mount	-10.6161
nexus	-10.6162
private	-10.6164
/50-	-10.6164
▁xinetd	-10.6166
arch	-10.6167
chef	-10.6178
mit	-10.6182
▁msg	-10.6183
gpg	-10.6192
basedir	-10.6197
-000	-10.6211
005.	-10.6232
▁common	-10.6234
SD	-10.6242
hep	-10.6247
ks	-10.6253
mmin	-10.6263
▁77	-10.6265
apple	-10.6273
-0.	-10.6274
▁path	-10.6284
▁Go	-10.6293
▁aa	-10.6319
▁some	-10.6321
usion	-10.6323
Blastema	-10.6335
simulation	-10.6335
lumide	-10.6335
LFS	-10.6335
quiz	-10.6335
▁resource	-10.6335
▁fortune	-10.6335
yd	-10.6343
ncbi	-10.6343
awa	-10.6363
metr	-10.6369
▁video	-10.6381
\)/	-10.6386
harma	-10.64
▁base	-10.6401
maps	-10.6406
mb	-10.6414
77	-10.6424
▁100	-10.643
header	-10.6444
68	-10.6452
1_5	-10.6464
▁functions	-10.6464
162/	-10.6471
▁stuff	-10.6474
▁isi	-10.6475
blast	-10.6482
▁sv	-10.6487
▁472	-10.6488
193	-10.6494
mvn	-10.6506
▁sql	-10.6521
lfs	-10.6523
fractals	-10.6539
OP	-10.6556
by	-10.6563
69	-10.6583
▁vm	-10.6584
006	-10.6586
zone	-10.659
▁lol	-10.6595
▁mc	-10.6596
window	-10.6604
ive	-10.664
▁se	-10.664
think	-10.6641
FAIL	-10.6647
Input	-10.6647
MACH	-10.6647
▁Finished	-10.6647
▁collectstatic	-10.6647
▁heroku	-10.6647
▁schoolCrawller	-10.6647
▁drone	-10.6647
▁nvidia	-10.6647
marathon	-10.6647
campos	-10.6648
_0009	-10.6649
▁ldapadd	-10.665
meminfo	-10.665
5530	-10.665
▁groupadd	-10.6651
webpage	-10.6652
toml	-10.6652
symplified	-10.6655
Why	-10.6659
▁gcm	-10.6662
zhan	-10.6668
▁audit	-10.6678
▁'*.	-10.6679
para	-10.6683
▁del	-10.6689
▁lxml	-10.6689
▁xrandr	-10.6689
browser	-10.6691
▁environ	-10.6692
▁starttime	-10.6693
raw	-10.6701
live	-10.6704
▁prog	-10.6714
▁deweylab	-10.6723
fixing	-10.6723
font	-10.6732
▁astrill	-10.6734
tui	-10.6735
▁listener	-10.6737
▁not	-10.6746
▁var	-10.6751
-1/	-10.6759
messages	-10.676
event	-10.6777
▁with	-10.678
▁compile	-10.6788
setuptools	-10.6793
▁getn	-10.6796
rockyou	-10.6796
software	-10.6797
fstab	-10.6797
WEB	-10.6797
ppa	-10.6798
Hum	-10.68
162.	-10.6801
accounts	-10.6807
▁metr	-10.6828
ignore	-10.6828
▁X	-10.6829
▁systemd	-10.6829
▁endothelial	-10.6836
onm	-10.6837
webserver	-10.6846
ect	-10.6848
▁comandos	-10.6862
sal	-10.6867
00"	-10.6876
inf	-10.6882
liu	-10.6885
ver	-10.6896
▁O	-10.6913
pk	-10.6918
224	-10.6922
engine	-10.6926
▁8.	-10.6929
▁Controller	-10.6943
ails	-10.6946
query	-10.6964
quil	-10.6967
Jonas	-10.697
exodus	-10.697
Director	-10.697
programming	-10.697
interone	-10.697
What	-10.6971
mark	-10.6973
▁mir	-10.6975
iverse	-10.6976
ba	-10.698
sans	-10.6981
TK	-10.6985
dpgen	-10.699
▁gap	-10.7007
▁sorting	-10.7017
▁blue	-10.7019
▁matching	-10.7033
hi	-10.7042
▁bs	-10.7043
TO	-10.7046
)'	-10.7047
▁phone	-10.7048
_1.3	-10.705
▁fontconfig	-10.7053
▁lsmod	-10.7069
own	-10.7083
composer	-10.7088
▁io	-10.7096
▁"^	-10.7096
pylab	-10.7099
▁kafka	-10.7101
nik	-10.7103
▁shadow	-10.7106
sw	-10.7111
syscalls	-10.7113
Source	-10.7125
cowsay	-10.7127
lsof	-10.7138
rebase	-10.7142
▁chrome	-10.7144
▁ra	-10.7151
31.	-10.7164
cmd	-10.7165
syscoind	-10.7182
sam	-10.7194
$(	-10.7211
hf	-10.7216
chat	-10.7223
▁lohn	-10.7236
sessions	-10.7252
picture	-10.7258
7-	-10.726
domains	-10.7268
30.	-10.7272
sP	-10.7275
und	-10.7278
elf	-10.7279
89	-10.7284
MA	-10.7287
lr	-10.7289
▁person	-10.7291
ntroduction	-10.7291
2019/	-10.7301
▁originst	-10.7302
enha	-10.7302
CASAVA	-10.7303
aristarko	-10.7303
Initial	-10.7303
NANO	-10.7303
TERM	-10.7303
unsplash	-10.7303
▁"*~*"	-10.7303
▁usuario	-10.7303
▁acestream	-10.7303
▁child	-10.7303
▁UndefinedBehav	-10.7303
marlin	-10.7303
webupd	-10.7303
1057_012	-10.7303
contact	-10.7303
laxman	-10.7303
bypass	-10.7303
crud	-10.7304
andora	-10.7306
▁networkmanager	-10.7306
hlA	-10.7306
▁443	-10.7307
hack	-10.7308
cambios	-10.7308
acht	-10.731
wilo	-10.7313
ki	-10.7314
▁192.168.15.10	-10.7316
▁newdockerfil	-10.7316
busy	-10.732
nima	-10.732
▁nat	-10.732
fan	-10.7323
▁SO	-10.7324
uator	-10.7324
▁phpmyadmin	-10.7324
prep	-10.733
▁rena	-10.7331
▁firewalld	-10.7333
▁PDF	-10.7336
▁tput	-10.7336
:53	-10.7337
▁agent	-10.7344
▁compton	-10.7348
bz	-10.7353
▁Char	-10.736
▁freetype	-10.7368
anshu	-10.7397
▁projects	-10.74
chroot	-10.7403
▁building	-10.7422
▁xxx	-10.7425
download	-10.7443
161	-10.7455
▁ER	-10.7455
▁User	-10.747
week	-10.7476
sifi	-10.748
▁intel	-10.7492
sysctl	-10.7492
▁bad	-10.7496
mar	-10.751
002.	-10.7512
▁visudo	-10.7512
ler	-10.7513
▁multi	-10.7518
mode	-10.7523
▁Android	-10.7523
▁input	-10.7528
\=	-10.7528
▁jdk	-10.753
bar	-10.7532
472	-10.7546
▁printf	-10.7547
libssh	-10.7555
▁Software	-10.756
▁venv	-10.756
our	-10.7594
Sample	-10.7603
▁star	-10.7629
189	-10.7632
▁21	-10.7643
pullcv	-10.7648
:443	-10.7648
PWM	-10.765
Base	-10.7651
1-1	-10.7665
▁We	-10.7667
life	-10.7675
▁cookbooks	-10.7681
▁teamviewer	-10.7682
openshift	-10.7682
86/	-10.7683
385	-10.7686
▁"$(	-10.769
fixed	-10.7696
▁mosquitto	-10.7701
02-	-10.7704
khi	-10.7706
robot	-10.7708
▁thinkfan	-10.7713
▁E	-10.7719
mini	-10.772
-5.10.1	-10.7724
▁jquery	-10.7726
▁gatk	-10.7732
▁cmd	-10.7732
▁cgi	-10.7734
▁pki	-10.7749
scss	-10.7755
shells	-10.7763
▁us	-10.7777
-4.1	-10.7781
▁1234	-10.7796
▁foss	-10.7804
lang	-10.7825
exercise	-10.7832
dmesg	-10.7832
dm	-10.7832
branch	-10.7833
remote	-10.7833
ager	-10.7834
xfce	-10.7834
makefile	-10.7837
push	-10.7854
PG	-10.7862
bas	-10.7866
downloads	-10.7873
ry	-10.7874
▁Backend	-10.7882
▁queue	-10.7883
sdk	-10.7895
▁li	-10.7902
icc	-10.7906
hql	-10.7908
▁activate	-10.791
NC	-10.7914
007	-10.7923
176	-10.7925
commit	-10.7931
86_64-	-10.7938
▁lock	-10.794
3.6	-10.7942
51	-10.7952
HelloWorld	-10.7963
▁foo	-10.7979
dbus	-10.798
:~	-10.7981
▁Python	-10.7997
▁Auto	-10.7999
▁matlab	-10.8002
match	-10.8003
Configuration	-10.8005
verbose	-10.8005
▁RafaelEspindola	-10.8005
▁caliente	-10.8005
perception	-10.8005
▁aluno	-10.8005
VERSION	-10.8005
ElementTree	-10.8005
Repos	-10.8005
sixnet	-10.8005
1.0.0.	-10.8005
Fasta	-10.8005
Wireless	-10.8005
▁1207	-10.8006
safe	-10.8007
6311/	-10.8007
▁172.18.1.1	-10.8008
=3	-10.8009
ING	-10.8009
▁pathfile	-10.8011
▁mysum	-10.8011
chain	-10.8013
▁INSTALL	-10.8015
.9.1	-10.8016
▁vncserver	-10.8017
Inform	-10.802
▁PF	-10.802
mpi	-10.8025
-04-	-10.8026
.2016.	-10.8031
cpan	-10.8036
▁angular	-10.8041
▁Shoes	-10.8046
cgi	-10.8046
▁cups	-10.8047
▁Pro	-10.8049
▁kibana	-10.8053
idade	-10.8055
windows	-10.8055
▁eblokir	-10.806
Off	-10.8061
mide	-10.8068
xr	-10.8068
linkme	-10.8083
disk	-10.8084
▁qt	-10.8086
enmod	-10.8088
▁texto	-10.8095
▁11	-10.8103
▁goodmor	-10.8105
snip	-10.8109
▁campaign	-10.8118
rimet	-10.8129
0311_	-10.8132
▁Timing	-10.8144
singleOneLane	-10.8146
mkconfig	-10.815
▁arquivo	-10.8152
libacl	-10.8157
Men	-10.816
hg	-10.8165
▁TEST	-10.8176
book	-10.8181
▁hql	-10.8183
▁application	-10.8189
Image	-10.8197
InputDrivers	-10.8198
TEST	-10.8199
adult	-10.8199
720	-10.82
userprog	-10.8201
Hello	-10.8202
litecoin	-10.8203
deurbel	-10.8204
▁ips	-10.8232
▁autoload	-10.8246
jre	-10.826
note	-10.8272
▁report	-10.8275
228	-10.8278
runs	-10.8283
mate	-10.8287
fb	-10.8291
213	-10.8303
▁pyn	-10.8311
▁ui	-10.8315
rag	-10.8316
aws	-10.8323
▁pir	-10.8331
sS	-10.8334
686	-10.8339
Fa	-10.8346
▁N	-10.8356
CI	-10.837
portal	-10.8372
ake	-10.8375
framework	-10.8375
-2.2.28+	-10.8375
bowtie	-10.8375
▁10.1.26.4	-10.8375
▁eventcmd	-10.8375
bridge	-10.8375
geek	-10.8376
smtp	-10.8376
crawler	-10.8376
▁youdao	-10.8377
*~	-10.8378
▁toremove	-10.8378
▁rport	-10.8378
GIN	-10.8379
▁47230	-10.838
Mo	-10.8382
mario	-10.8385
kmers	-10.8388
ron	-10.8391
▁tutorial	-10.84
▁2-4	-10.8405
networks	-10.8409
virtualenvs	-10.8415
AN	-10.8416
lora	-10.8425
WA	-10.8431
163.	-10.8431
plant	-10.8438
▁Packages	-10.8439
▁tiago	-10.8439
▁part	-10.8468
etry	-10.8471
▁model	-10.8485
▁repo	-10.8485
▁50	-10.8491
Xorg	-10.8495
bf	-10.8496
▁mt	-10.85
123.	-10.8502
▁char	-10.8516
▁LESS	-10.852
▁49	-10.852
databases	-10.8528
64_	-10.8537
▁etho	-10.8539
backend	-10.8541
syscall	-10.8548
▁userprog	-10.8553
salt	-10.8556
popcorn	-10.8583
secure	-10.8584
mariadb	-10.8584
xinetd	-10.8586
write	-10.8587
uniq	-10.8587
bootstrap	-10.8588
display	-10.8588
domain	-10.8588
▁cam	-10.8592
}'	-10.8596
ster	-10.8598
▁Projects	-10.8603
▁rootnet	-10.8605
sharp	-10.8609
▁pp	-10.8616
2.6	-10.8638
758	-10.8644
▁whoami	-10.8649
▁community	-10.8655
fail	-10.8666
002	-10.868
nmap	-10.8681
gui	-10.8682
yama	-10.8688
pad	-10.8693
dos	-10.8698
Su	-10.8699
pw	-10.87
135	-10.8701
now	-10.8711
_6_	-10.8712
▁Shoe	-10.8716
▁Re	-10.8723
130	-10.8723
▁at	-10.8729
CA	-10.8729
Gu	-10.8734
sant	-10.8746
▁firewall	-10.875
@172.16.0.2	-10.8755
▁pri	-10.8756
scramble	-10.876
ARCH	-10.876
injector	-10.876
Notes	-10.876
ROOT	-10.876
Xauthority	-10.876
myContainerNet	-10.876
▁daveh	-10.876
▁marque	-10.876
▁recovery	-10.876
▁writebasic	-10.876
2_10679574	-10.876
gallery	-10.876
overridingmethod	-10.876
EXTE	-10.876
▁Silva	-10.876
▁numReads	-10.876
meterpreter	-10.876
wenyi	-10.876
rotate	-10.876
ipynb	-10.876
VAR	-10.876
▁Firebird	-10.876
=512	-10.8761
pretty	-10.8761
Update	-10.8761
cutting	-10.8761
Fix	-10.8761
End	-10.8761
robocon	-10.8761
organiz	-10.8762
▁depo	-10.8763
inspect	-10.8766
▁vlc	-10.8768
luakit	-10.8769
ilties	-10.8771
▁Wall	-10.8772
parameters	-10.8775
origin	-10.8775
rick	-10.8776
@163.	-10.8776
eason	-10.8783
206	-10.8784
son	-10.8796
patche	-10.8802
tlr	-10.8808
▁scrot	-10.8812
this	-10.8814
ities	-10.8818
10000	-10.8826
▁LICENSE	-10.8826
lart	-10.8841
gar	-10.8843
▁DISPLAY	-10.8854
▁asd	-10.8862
▁sec	-10.8865
mptrace	-10.8873
▁module	-10.8874
▁lspci	-10.8879
▁format	-10.8883
\:1	-10.8892
alina	-10.8901
▁Ccsp	-10.8904
ort	-10.8908
make	-10.8923
route	-10.8923
▁userC	-10.8928
▁../../..	-10.893
venv	-10.8935
clients	-10.8948
parser	-10.8951
abor	-10.8956
document	-10.8981
wgb	-10.8981
pdommeti	-10.8983
practice	-10.8987
openssl	-10.8988
big	-10.8989
prt	-10.8995
▁guoding	-10.9009
▁domain	-10.9023
notes	-10.9038
vn	-10.9042
▁sub	-10.9048
04.	-10.905
threads	-10.9066
Qs	-10.9088
61	-10.9093
▁attacker	-10.9094
▁1414	-10.9098
060	-10.9104
mta	-10.9111
ading	-10.9131
▁edit	-10.9133
kin	-10.9145
"|	-10.9149
Setup	-10.916
▁Temp	-10.916
Cycle	-10.916
PRO	-10.916
▁Ubisoft	-10.916
▁Down	-10.9161
gas	-10.9162
3-1-	-10.9162
noarch	-10.9162
Simple	-10.9164
multiple	-10.9165
pz	-10.9167
OW	-10.9169
▁TA	-10.9173
linear	-10.9173
Shell	-10.9175
developer	-10.9178
ccg	-10.9179
244	-10.918
▁mysite	-10.9182
Dock	-10.9187
vv	-10.9191
▁192.168.1	-10.92
recv	-10.921
▁keys	-10.9213
sub	-10.9215
▁$$	-10.9216
▁tra	-10.9216
▁added	-10.9223
▁fish	-10.9226
▁pydev	-10.9242
Si	-10.9258
▁testando	-10.9258
▁driver	-10.9265
▁Matlab	-10.9265
tvm	-10.9272
▁ap	-10.928
12.	-10.9283
▁moc	-10.9284
loops	-10.9286
▁dmc	-10.929
BR	-10.9295
virtualenv	-10.9311
OS	-10.9313
pul	-10.9316
_64.	-10.9318
325	-10.9328
▁users	-10.933
wm	-10.9356
▁HelloWorld	-10.9358
1000	-10.9361
xx	-10.9371
Co	-10.9381
▁call	-10.9387
▁kali	-10.9397
shadow	-10.9402
telegram	-10.9403
program	-10.9403
psybnc	-10.9404
▁wait	-10.9404
arquivotrabalho	-10.9405
ccsp	-10.9406
from	-10.9408
og	-10.9414
▁?	-10.9415
▁prune	-10.9419
reset	-10.9442
pwd	-10.9444
85	-10.9451
ger	-10.9459
snmpd	-10.9464
▁exist	-10.9464
@10.1.26.23:/	-10.9477
▁mike	-10.9488
cms	-10.9498
-1000	-10.9505
▁10.1	-10.9506
-4.3.	-10.9516
237	-10.9522
ions	-10.9533
pts	-10.9538
Regi	-10.9543
▁mai	-10.9546
MakeFile	-10.9548
66	-10.9552
▁192.168.15.1	-10.9552
▁coll	-10.9569
predictor	-10.9572
HOST	-10.9575
▁10.1.26.0	-10.9575
▁Radio	-10.9576
(1).	-10.9577
_160803	-10.9577
sschepis	-10.9577
-5.16.2	-10.9577
567890	-10.9577
DecompWorkspace	-10.9577
geometry	-10.9577
mycroft	-10.9577
м	-10.9577
Overview	-10.9577
fsLayers	-10.9577
modification	-10.9577
▁volume	-10.9577
Reciproka	-10.9577
\(1\).	-10.9577
▁164.132.194.22	-10.9577
_13-03-	-10.9577
▁when	-10.9577
completion	-10.9577
▁Uplay	-10.9577
facebook	-10.9577
▁States	-10.9577
Share	-10.9577
▁00_5_	-10.9577
▁Templates	-10.9577
beta	-10.9577
neovim	-10.9578
DATA	-10.9578
splus	-10.9579
▁eproj	-10.958
tbl	-10.9581
▁0.0.0.0:2	-10.9581
▁will	-10.9581
trial	-10.9582
downloader	-10.9582
junk	-10.9583
▁TM	-10.9586
plugwise	-10.9588
;%	-10.9589
cipher	-10.9596
-1.9	-10.9597
602"	-10.9597
grp	-10.9598
ums	-10.9601
azy	-10.9609
\>	-10.961
fmt	-10.9616
LS	-10.9618
:2019	-10.9626
PA	-10.9627
face	-10.9633
Scc	-10.9643
blacklists	-10.9643
▁wini	-10.9645
last	-10.9648
:\	-10.9651
001	-10.9655
connection	-10.9667
zme	-10.9672
▁toeknee	-10.9679
▁alpine	-10.9679
▁metasploit	-10.9679
curl	-10.968
deps	-10.9682
To	-10.9686
▁nomes	-10.9687
▁full	-10.9689
▁small	-10.9697
▁ha	-10.9702
▁pid	-10.9707
Mai	-10.9707
eth	-10.9712
@10.1.26.23	-10.9712
params	-10.9715
ntry	-10.9717
▁pug	-10.9718
vvv	-10.9735
gy	-10.9738
.2014	-10.9747
DI	-10.9754
nakes	-10.9762
▁141	-10.977
mdm	-10.9771
Rns	-10.9772
plot	-10.9773
▁Image	-10.9777
uid	-10.978
module	-10.9793
mer	-10.981
▁01_	-10.981
sender	-10.9814
jobs	-10.9819
▁certs	-10.9832
231	-10.9832
fasttrack	-10.9836
kafka	-10.9838
graph	-10.9838
.127	-10.9838
wifi	-10.984
yip	-10.9846
READ	-10.9846
2-1	-10.9846
▁scale	-10.9851
▁self	-10.9851
▁environment	-10.986
xv	-10.9869
Th	-10.9877
paths	-10.9888
▁\*	-10.9892
CT	-10.9893
libs	-10.9893
devices	-10.9902
▁gh	-10.9914
ight	-10.9926
▁soft	-10.9933
▁site	-10.9939
@10.1.26.	-10.9946
_10	-10.9949
▁router	-10.995
ttachment	-10.9958
detail	-10.997
▁patch	-10.9978
Ass	-10.9978
▁publico	-10.9981
810	-10.9992
Architecture	-11.0004
redhat	-11.0011
ultrasonic	-11.0012
CcspMtaAgent	-11.0012
Default	-11.0012
buzz	-11.0012
syntax	-11.0012
extractor	-11.0012
▁texlive	-11.0012
Additions	-11.0012
▁bluetoothctl	-11.0014
atlas	-11.0016
dhcp	-11.0017
MPI	-11.0018
thing	-11.002
▁qu	-11.0028
imagestore	-11.0029
clion	-11.0029
286	-11.003
▁summarize	-11.0031
-2.0/	-11.0033
▁repository	-11.0034
▁Justice	-11.0039
This	-11.004
▁644	-11.0043
devops	-11.0051
▁hard	-11.0055
▁litarvan	-11.0055
▁Webmin	-11.0064
14_	-11.0066
▁navigation	-11.0071
▁slapd	-11.0071
112	-11.0075
74.	-11.0079
▁2016	-11.008
▁'\	-11.0097
▁share	-11.0102
\|	-11.0127
32.	-11.0141
hall	-11.0167
▁mouse	-11.0177
▁libssh	-11.0187
▁fonts	-11.0188
▁bo	-11.0198
exce	-11.0209
▁shm	-11.0216
▁util	-11.0227
▁jre	-11.0229
/$	-11.023
▁startup	-11.0231
008	-11.0233
807.	-11.0234
vp	-11.0255
▁war	-11.0271
quit	-11.0279
mycookbook	-11.029
LESS	-11.0291
Timing	-11.0291
tomas	-11.0292
swift	-11.0292
employer	-11.0292
wlp	-11.0294
process	-11.0295
vt	-11.0295
win	-11.0298
how	-11.0301
concat	-11.0302
amd	-11.0303
free	-11.0306
SU	-11.0319
mouse	-11.0333
CMake	-11.0336
eq	-11.0339
rin	-11.0345
dp	-11.0347
196	-11.0353
toto	-11.0356
-2019-15107.	-11.0376
moved	-11.0378
STA	-11.038
pylast	-11.0383
vy	-11.0384
▁=	-11.0385
late	-11.0386
▁proxy	-11.0392
-308	-11.0393
_2017	-11.0401
structure	-11.0409
▁ntp	-11.042
▁cookbook	-11.0422
rif	-11.0429
1.5	-11.0431
RE	-11.0434
▁GC	-11.0459
▁msf	-11.046
prompt	-11.0466
holberton	-11.0466
▁express	-11.0466
dejavu	-11.0466
CMAgent	-11.0466
LIBRARY	-11.0466
rygel	-11.0466
wrtbwmon	-11.0466
▁simNao	-11.0466
▁sublime	-11.0466
7-04-26_23-59-27	-11.0466
Exercises	-11.0466
VirtualBox	-11.0466
[*]	-11.0466
mkinitcpio	-11.0466
uberwriter	-11.0466
▁RedLedO	-11.0466
▁openhwcar	-11.0466
▁'+%	-11.0466
▁octonode	-11.0466
tagging	-11.0466
▁napalm	-11.0466
prediction	-11.0466
sweep	-11.0466
Logs	-11.0466
fields	-11.0466
_24-45	-11.0466
@192.168.1.120	-11.0466
Level	-11.0466
evernote	-11.0466
lighttpd	-11.0466
▁busan	-11.0466
/47230	-11.0466
▁2001:	-11.0466
Miracle	-11.0466
▁engineering	-11.0466
▁syncdb	-11.0466
PHP	-11.0466
karma	-11.0466
Last	-11.0466
partial	-11.0467
jpeg	-11.0467
▁david	-11.0467
fancontrol	-11.0467
▁getblock	-11.0467
gnupg	-11.0467
filling	-11.0468
▁rxvt	-11.0468
ansadmin	-11.0468
ronic	-11.0469
▁prms	-11.0469
)}'	-11.0469
▁abst	-11.0469
IPS	-11.047
New	-11.0471
▁servo	-11.0472
▁pmake	-11.0472
solarized	-11.0473
▁mgen	-11.0475
Site	-11.0476
▁1367	-11.0477
▁smbclient	-11.0478
@10.1	-11.0479
▁there	-11.0481
ibm	-11.0484
mypath	-11.0484
4/22	-11.0485
▁psyBNC	-11.0495
▁monitor	-11.0495
oem	-11.0503
tador	-11.0506
▁verify	-11.0512
▁gogs	-11.0512
bib	-11.0519
pci	-11.0519
sem	-11.0523
▁bluetooth	-11.0526
▁smunch	-11.0528
▁manjaro	-11.0531
▁zlib	-11.0532
▁webapp	-11.0532
▁185	-11.0532
oras	-11.0533
2.7/	-11.0535
ook	-11.0545
▁hd	-11.0547
@192.168.1	-11.055
5353	-11.0552
lha	-11.0554
138	-11.0557
▁controller	-11.056
▁timer	-11.0561
72	-11.0569
adin	-11.0572
▁2222	-11.0573
luid	-11.0577
▁800	-11.0591
links	-11.0602
▁vpn	-11.0615
Per	-11.0621
▁movie	-11.0628
▁sources	-11.0629
140312-	-11.0632
▁gpasswd	-11.0637
we	-11.0674
opening	-11.0676
▁mariadb	-11.0678
lR	-11.0694
stor	-11.0695
Qt	-11.0707
▁vimrc	-11.073
Application	-11.073
▁mpi	-11.0731
ze	-11.0732
hub	-11.0743
▁wp	-11.0746
▁blast	-11.0746
▁chapter	-11.0754
empty	-11.0763
Ccsp	-11.0766
student	-11.0768
drupal	-11.0769
bitbucket	-11.077
devise	-11.077
modprobe	-11.077
gpio	-11.0771
000-	-11.0779
ator	-11.0784
ON	-11.0787
fetch	-11.0793
exp	-11.0804
▁127.0.0.1:8	-11.0812
udp	-11.0819
▁so	-11.0824
▁dconf	-11.0833
short	-11.0839
▁mysqldb	-11.0858
installed	-11.0861
RC	-11.0875
rev	-11.0878
exploits	-11.0882
▁img	-11.0893
gre	-11.0901
ize	-11.0903
▁role	-11.0905
crypt	-11.0906
Map	-11.0925
Projects	-11.0936
▁swap	-11.094
EWUACXX	-11.0942
▁Vagrant	-11.0942
helveticvape	-11.0942
curator	-11.0942
security	-11.0942
▁10.0.2.15	-11.0942
▁bicycledata	-11.0942
▁venom	-11.0942
consumption	-11.0942
▁neelu	-11.0942
Lauren	-11.0942
Local	-11.0942
-3.17/	-11.0942
▁mmus	-11.0942
▁useful	-11.0943
music	-11.0943
▁Used	-11.0943
muie	-11.0943
▁Website	-11.0944
lastfm	-11.0944
▁jp	-11.0946
Blu	-11.0947
▁termite	-11.0951
▁bbb	-11.0951
wire	-11.0951
pulse	-11.0952
▁-30	-11.0954
-1.8	-11.0957
Ssp	-11.0983
22.	-11.0988
only	-11.0993
stool	-11.0993
▁database	-11.0996
▁tensorflow	-11.1007
Node	-11.1008
dots	-11.1013
▁snap	-11.1021
704	-11.1025
ear	-11.1027
words	-11.1028
▁exp	-11.104
▁configure	-11.1041
▁tc	-11.1051
selinux	-11.1062
@17	-11.1066
▁cgic	-11.1071
▁menu	-11.1079
▁bg	-11.1107
▁release	-11.1107
pod	-11.1112
erting	-11.1117
▁catalog	-11.1124
_0.	-11.1126
bbl	-11.114
▁inet	-11.116
sions	-11.1165
tw	-11.1172
▁%1	-11.1176
{1..	-11.1178
▁sifi	-11.1192
stack	-11.1204
In	-11.1208
143	-11.1222
▁testfile	-11.1229
move	-11.123
▁can	-11.1234
parse	-11.1247
▁vars	-11.1252
experiment	-11.1254
dot	-11.1257
▁One	-11.1263
william	-11.1264
switch	-11.1264
LANG	-11.1266
ident	-11.1267
movie	-11.1267
grafana	-11.1269
rrd	-11.1276
database	-11.1279
_160801/	-11.1282
roles	-11.1292
labels	-11.13
1306	-11.1311
crl	-11.1322
NAL	-11.1322
▁er	-11.1355
▁aaaa	-11.1369
▁pil	-11.1372
userdata	-11.1386
collect	-11.1388
@192.168.	-11.1389
iting	-11.1395
moc	-11.1398
242	-11.1398
stock	-11.1401
▁rhost	-11.1408
registrat	-11.1412
▁192.168.1.1	-11.1414
▁osk	-11.1417
schedule	-11.1417
corp	-11.142
▁FastQC	-11.1425
▁sn	-11.1428
▁awesome	-11.1432
gues	-11.144
Flow	-11.1442
scrooloose	-11.1442
SQLC	-11.1442
obias	-11.1442
purple	-11.1442
hercules	-11.1442
language	-11.1442
▁pidgin	-11.1442
▁wireshark	-11.1442
:28018	-11.1442
Another	-11.1442
ShareForVMs	-11.1442
dictionary	-11.1442
gestures	-11.1442
о	-11.1442
’	-11.1442
▁127.18.1.5	-11.1442
▁Iwillcrushyou	-11.1442
▁inventario	-11.1442
▁mercurial	-11.1442
▁zoombie	-11.1442
COMMAND	-11.1442
EECS	-11.1442
Island	-11.1442
_2.11-0.10.0.1	-11.1442
zdogma	-11.1442
divisu	-11.1442
naconda	-11.1442
central	-11.1442
Install	-11.1442
wulai	-11.1442
▁$1}'	-11.1442
▁korea	-11.1442
▁gunzip	-11.1442
Host	-11.1443
▁openhab	-11.1443
▁numeros	-11.1443
Mouse	-11.1443
evaluator	-11.1443
▁Schrodinger	-11.1443
LOG	-11.1444
14021	-11.1444
ACK	-11.1444
▁alex	-11.1444
▁alsa	-11.1445
jason	-11.1445
▁paper	-11.1446
3306	-11.1447
signup	-11.1448
\]/	-11.1449
▁tap	-11.1449
▁execute	-11.145
4.0.0	-11.1452
▁sendmail	-11.1453
Plugin	-11.1453
cure	-11.1453
butt	-11.1456
lisp	-11.1457
▁overcloudrc	-11.1459
vulners	-11.146
▁mystuff	-11.1463
Wr	-11.1463
mining	-11.1463
_2_1	-11.1465
CON	-11.1465
▁amit	-11.1466
▁nao	-11.1467
Devel	-11.1468
▁172.18.1.5/24	-11.1469
wei	-11.1473
lier	-11.1479
ict	-11.148
rss	-11.148
.171	-11.1483
formats	-11.1484
▁task	-11.1486
review	-11.1491
▁active	-11.1493
undo	-11.1494
opia	-11.1499
▁ld	-11.1504
▁minimatch	-11.1512
cmdline	-11.1513
▁listen	-11.1516
▁dbback	-11.1519
ist	-11.1519
▁bos	-11.1528
▁another	-11.1529
▁drun	-11.153
908	-11.153
ken	-11.1543
@127.0.0.1	-11.1544
▁inventory	-11.1548
▁pubmed	-11.1548
AC	-11.1548
▁wrapper	-11.1549
dircolors	-11.1552
cast	-11.1552
-29.	-11.1553
▁kern	-11.1554
mdk	-11.1567
▁rename	-11.1568
without	-11.1571
▁10.0.	-11.1588
▁+1	-11.1589
kai	-11.1591
518	-11.1591
enum	-11.1598
▁133	-11.1602
▁acpilig	-11.1616
AE	-11.1616
homepage	-11.164
▁short	-11.164
▁mycookbook	-11.164
▁wlp	-11.1641
uck	-11.1643
gn	-11.1646
ovan	-11.1653
393	-11.1658
/#	-11.1661
▁filesys	-11.1662
applications	-11.1671
5.10.0/	-11.1674
clang	-11.1674
▁last	-11.1675
▁secure	-11.1679
ql	-11.1686
▁sw	-11.171
43.1	-11.1715
6-0	-11.1725
esr	-11.1726
hel	-11.1738
Up	-11.1773
sched	-11.1778
▁support	-11.1783
!"	-11.1785
▁form	-11.1793
Content	-11.1795
true	-11.1795
perlbrew	-11.1796
▁GrovePi	-11.1799
▁ho	-11.1802
kw	-11.1803
",	-11.1805
startup	-11.1809
rbenv	-11.1812
rust	-11.1818
▁table	-11.1819
Report	-11.1821
▁json	-11.1825
locale	-11.1825
161.	-11.1829
▁dim	-11.1837
point	-11.1839
mongodb	-11.185
▁plymouth	-11.1853
fda	-11.1878
acl	-11.1884
▁filter	-11.1897
ops	-11.1897
ien	-11.1903
▁pdr	-11.1915
WM	-11.1923
▁nm	-11.1952
▁">	-11.1953
folder	-11.1955
Applications	-11.1959
▁uni	-11.1966
ratch	-11.1968
Query	-11.1968
thrift	-11.1969
adventure	-11.1969
importcrazyness	-11.1969
▁Adafruit	-11.1969
▁smartercar	-11.1969
2.3.2-	-11.1969
studio	-11.1969
olbl	-11.1969
Unity	-11.1969
others	-11.1969
Dorin	-11.1969
pixel	-11.1969
tulpn	-11.1969
unique	-11.1969
provide	-11.1969
▁Resources	-11.1969
▁tlp	-11.197
▁lasp	-11.197
MSc	-11.1971
9999	-11.1972
ylib	-11.1973
ngos	-11.1977
complete	-11.1979
zero	-11.1979
sock	-11.1984
]*/	-11.1984
▁iter	-11.1989
▁monodevelop	-11.2013
ool	-11.2014
▁VBox	-11.2022
▁World	-11.2025
wen	-11.2034
▁pk	-11.2048
▁store	-11.2052
sert	-11.206
▁parallel	-11.206
fect	-11.2064
oje	-11.2075
▁Models	-11.208
cbo	-11.2083
▁wordlists	-11.209
fun	-11.209
ugo	-11.2094
▁Attributes	-11.2099
▁flow	-11.2099
173	-11.21
pgp	-11.2122
▁Service	-11.2127
▁exploits	-11.2141
ED	-11.2146
▁que	-11.2151
▁pu	-11.2152
▁ProgrammingP	-11.2167
ele	-11.2169
-7.0.72/	-11.218
▁acl	-11.2187
▁READ	-11.2188
hw	-11.2189
▁fasttrack	-11.2192
▁font	-11.2205
210	-11.2206
nico	-11.2213
▁backend	-11.2219
ped	-11.222
▁andr	-11.2221
▁Pe	-11.2224
sssss	-11.2231
▁xfce	-11.2238
▁defaults	-11.2243
012	-11.2258
265	-11.2259
idr	-11.227
▁colors	-11.2273
Snake	-11.2281
:10000	-11.2283
format	-11.2307
Programming	-11.2318
libstdc	-11.2347
pokemmo	-11.2347
arquivo	-11.2347
powerline	-11.2348
what	-11.2349
▁(	-11.2349
Croatia	-11.235
typo	-11.235
aligned	-11.2351
briq	-11.2351
policy	-11.2351
advanced	-11.2352
pintos	-11.2352
nbgrader	-11.2352
clear	-11.2353
▁gui	-11.2354
nano	-11.2354
vpn	-11.2354
element	-11.2355
pug	-11.2355
readme	-11.2356
zh	-11.2361
eye	-11.2365
pthread	-11.2375
campaign	-11.2378
▁we	-11.2385
▁random	-11.2391
idi	-11.2395
metadata	-11.24
▁template	-11.2404
filesys	-11.2405
=11	-11.2412
seq	-11.2416
321	-11.2419
lly	-11.2422
▁juvenile	-11.2425
▁testing	-11.2425
yth	-11.2433
▁silv	-11.2437
▁names	-11.2437
▁dashboard	-11.2445
1234	-11.245
clar	-11.2457
File	-11.2465
▁ng	-11.2466
chang	-11.2471
▁85	-11.2472
vision	-11.2482
▁rw	-11.2489
EAD	-11.2504
igB	-11.2508
ML	-11.2518
facts	-11.2519
▁32	-11.2519
ehmuth	-11.2522
Type	-11.2522
▁2247	-11.2523
Backup	-11.2523
broadc	-11.2524
gdrive	-11.2524
Pocket	-11.2524
▁instackenv	-11.2524
▁ScannerClass	-11.2524
5.16.3/	-11.2524
APPLE	-11.2524
BASH	-11.2524
MultiFolder	-11.2524
Photos	-11.2524
WORK	-11.2524
_160715_1547	-11.2524
lvthz	-11.2524
myContainer	-11.2524
should	-11.2524
▁BIG	-11.2524
▁EstateAgen	-11.2524
▁Queue	-11.2524
▁TARGETURI	-11.2524
▁akamake	-11.2524
▁excelparser	-11.2524
▁fernandito	-11.2524
▁handbrake	-11.2524
FDB	-11.2524
SION	-11.2524
YouCompleteMe	-11.2524
applicant	-11.2524
rueba	-11.2524
junior	-11.2524
noaccts	-11.2524
pleCount	-11.2524
▁jimp	-11.2524
screenshot	-11.2524
▁AStar	-11.2524
▁analyse	-11.2524
▁simulat	-11.2524
▁slaves	-11.2525
production	-11.2525
From	-11.2525
onyx	-11.2525
▁Pig	-11.2525
hiago	-11.2525
255.2	-11.2525
Key	-11.2525
▁mako	-11.2525
vmoptions	-11.2526
5432	-11.2526
passno	-11.2527
GUI	-11.2528
level	-11.2528
beat	-11.2528
overview	-11.2528
prefs	-11.2528
prototype	-11.253
greeting	-11.2532
siak	-11.2532
▁30	-11.2532
▁QA	-11.2533
][	-11.2533
Frontend	-11.2533
interv	-11.2536
lpn	-11.2536
▁mono	-11.2537
1996@	-11.2539
▁dhruvsus	-11.254
▁imra	-11.2542
RAI	-11.2542
LIN	-11.2545
PKG	-11.2546
ACXX	-11.2548
blade	-11.2548
('	-11.2553
665	-11.2557
rface	-11.2558
};	-11.2565
FF	-11.2566
inform	-11.2569
▁Volume	-11.257
dmc	-11.2571
Rate	-11.2571
aster	-11.2573
variavel	-11.2576
_1.1.	-11.258
▁EDITOR	-11.258
▁GPIO	-11.258
▁Working	-11.258
Get	-11.2583
▁usu	-11.2584
ven	-11.2589
▁credential	-11.259
▁one	-11.2595
Gan	-11.2596
▁babymarv	-11.2598
plica	-11.2606
\00	-11.2607
faq	-11.2609
qq	-11.2613
miracles	-11.2619
▁hc	-11.2623
▁addon	-11.2627
▁rpmv	-11.2632
▁32.	-11.2635
ube	-11.264
xxx	-11.2642
states	-11.2644
.6.0-	-11.265
535	-11.2659
▁sqlite	-11.2662
LC	-11.2663
▁sddm	-11.2664
tag	-11.267
▁Su	-11.2683
dpr	-11.2683
-1.7	-11.2685
▁sysv	-11.2692
▁blatSrc	-11.2693
456	-11.2693
try	-11.2698
▁mp	-11.2709
/10-	-11.2712
itions	-11.2713
▁inode	-11.2714
spidev	-11.2719
Do	-11.2723
▁LANG	-11.2725
▁RT	-11.2728
▁move	-11.2728
steve	-11.2733
▁inst	-11.2745
myportal	-11.2774
:]	-11.2776
▁ST	-11.2796
▁adult	-11.2797
printenv	-11.2804
▁platform	-11.2804
▁hellow	-11.2806
▁cowsay	-11.2829
▁clonesi	-11.2832
311	-11.2849
▁xf	-11.2855
inch	-11.2857
4]	-11.286
003	-11.2861
updated	-11.2863
nip	-11.2897
▁192.168.	-11.2899
85.	-11.2904
▁snmp	-11.2925
?"	-11.2927
Config	-11.2932
Herders	-11.2934
Thumb	-11.2935
Open	-11.2935
blatSrc	-11.2936
catalog	-11.2937
libssl	-11.2937
Service	-11.2938
Public	-11.2939
1023	-11.2944
AG	-11.2951
spi	-11.2954
helloworld	-11.2962
▁ant	-11.2963
reload	-11.2965
036	-11.2967
▁*.*	-11.2967
109	-11.2977
▁gzip	-11.2985
form	-11.2989
vec	-11.2997
▁sbin	-11.2998
379	-11.3007
▁Linux	-11.3008
mkl	-11.3029
nist	-11.3056
.120	-11.3076
▁sun	-11.3091
1996	-11.31
▁session	-11.3106
method	-11.3112
:2019-15107	-11.3112
PhonePractice	-11.3112
alternatives	-11.3112
mateustalin	-11.3112
ranslations	-11.3112
salvus	-11.3112
▁Marque	-11.3112
▁\(2017\)	-11.3112
AutoScale	-11.3112
Global	-11.3112
scraper	-11.3112
pairedOneLane	-11.3112
▁rider	-11.3112
nodefarm	-11.3112
▁192.168.128.	-11.3112
▁ajax	-11.3112
blob	-11.3113
termux	-11.3113
-2.2.52	-11.3113
stylesheet	-11.3113
wiki	-11.3113
▁0644	-11.3113
▁Gyeonggi	-11.3113
/4013	-11.3113
nzhi	-11.3114
▁White	-11.3115
mozilla	-11.3115
elpa	-11.3116
▁audible	-11.3116
▁Un	-11.3116
izz	-11.3117
▁SE	-11.3117
API	-11.3118
defin	-11.3125
libcap	-11.313
▁bob	-11.3131
charts	-11.3132
singlepoint	-11.3138
Tab	-11.3139
RT	-11.3141
fusion	-11.3142
Bio	-11.3142
▁rpi	-11.3143
inky	-11.3145
▁efs	-11.315
7-04-26_13-32-02	-11.3167
notr	-11.3172
▁na	-11.3175
▁paho	-11.3175
Sum	-11.3177
▁Q	-11.3183
▁LittlePigHoHo	-11.3183
▁todo	-11.3185
WS	-11.3191
osk	-11.3192
▁Projekt	-11.3194
ER	-11.3195
silver	-11.3206
▁15	-11.3212
▁Facultate	-11.3216
coreutils	-11.3216
▁Dev	-11.322
TAB	-11.3224
▁tarfiles	-11.3228
▁weather	-11.3232
passwords	-11.3233
website	-11.3235
▁MySQL	-11.3237
▁themes	-11.324
dropbox	-11.3242
▁models	-11.3247
▁cos	-11.3247
▁styles	-11.3248
publication	-11.3262
perso	-11.3266
82:	-11.3272
▁abcd	-11.3279
▁isu	-11.3281
rojects	-11.3299
▁powerline	-11.3311
▁80:80	-11.3314
rus	-11.3333
▁document	-11.3349
dk	-11.3351
/1305	-11.3388
eful	-11.339
▁181	-11.339
VC	-11.3393
▁Application	-11.3393
▁cover	-11.3395
▁142	-11.3395
▁Add	-11.3396
themex	-11.3406
sav	-11.3408
0.10.1	-11.3419
tune	-11.3424
=10	-11.3436
789	-11.3445
eci	-11.3457
manage	-11.3465
1.9	-11.3468
Kun	-11.3505
label	-11.3508
dari	-11.3509
140312	-11.3516
wallpaper	-11.3517
172.18.1.5	-11.355
8.6	-11.3553
cinnamon	-11.3559
goodmor	-11.3563
astrill	-11.3563
listener	-11.3563
gustav	-11.3564
logstash	-11.3564
body	-11.3565
CVE	-11.3565
>>	-11.3567
wlan	-11.3568
genesys	-11.357
DA	-11.3582
launcher	-11.3589
The	-11.359
zcat	-11.3592
rock	-11.3598
npm	-11.3598
▁./100	-11.3605
ssss	-11.3618
▁compress	-11.3624
aq	-11.3636
references	-11.3656
-1.6	-11.3656
stop	-11.3658
nalysis	-11.3669
▁2227	-11.3687
▁me	-11.3688
▁recipe	-11.3694
interface	-11.3694
Model	-11.3696
.246	-11.3705
lcur	-11.3717
-7-	-11.3719
▁block	-11.3719
mysqld	-11.3722
orwind	-11.3724
▁opera	-11.3724
rints	-11.3733
135.83	-11.3734
▁over	-11.3735
vnc	-11.3736
extension	-11.3737
product	-11.3737
Check	-11.3737
3.3.1-0-	-11.3737
openembedded	-11.3737
bypauth	-11.3737
thatonegi	-11.3737
Design	-11.3737
FILE	-11.3737
▁mgguanjian	-11.3737
Development	-11.3737
Manager	-11.3737
PWD	-11.3737
Treasure	-11.3737
autocrlf	-11.3737
ditorDragAndDrop	-11.3737
physician	-11.3737
reflection	-11.3737
▁67.151.130.250	-11.3737
▁DBTest	-11.3737
▁INPUT	-11.3737
▁WARNING	-11.3737
▁hdparm	-11.3737
▁joepeer	-11.3737
▁plagiarism	-11.3737
▁undercloud	-11.3737
FRIEND	-11.3737
Login	-11.3737
▁Final	-11.3737
▁Hotel	-11.3737
Revathi	-11.3737
laurensia	-11.3737
▁StringRotate	-11.3737
3_10679574	-11.3737
yamllint	-11.3737
▁successful	-11.3737
emperature	-11.3737
override	-11.3737
的	-11.3737
Sector	-11.3737
9169	-11.3737
▁sonar	-11.3737
▁EightPuzzle	-11.3737
Styl	-11.3738
methodnamec	-11.3738
ppliance	-11.3738
▁xeyes	-11.3738
nrpe	-11.3738
▁rangerScript	-11.3738
▁Andressa	-11.3738
1087/	-11.3738
▁biweek	-11.3738
workflow	-11.3738
▁uncommit	-11.3738
fwrules	-11.3738
▁traefik	-11.3738
found	-11.3738
▁converge	-11.3738
▁grunt	-11.3738
phar	-11.3738
▁ntpdate	-11.3739
contenteditor	-11.3739
8077	-11.3739
▁extract	-11.3739
zmq	-11.3739
▁bootlace	-11.3739
▁mame	-11.3739
▁vboxguest	-11.3739
Mueed	-11.374
▁jair	-11.374
peco	-11.374
▁MediaModul	-11.3741
▁bai	-11.3741
▁.[].	-11.3742
Mark	-11.3742
▁failed	-11.3742
▁3-5	-11.3743
markdown	-11.3743
@173.	-11.3745
0047	-11.3745
bmi	-11.3747
configstore	-11.3747
rius	-11.3747
east	-11.3747
▁autostart	-11.3747
6064	-11.3748
▁smbus	-11.3748
▁redo	-11.3749
-3.2.	-11.375
easer	-11.375
revision	-11.375
▁1369	-11.375
Settings	-11.375
_2_3	-11.375
bulma	-11.3751
);"	-11.3751
bidyut	-11.3752
drop	-11.3753
roblem	-11.3755
${	-11.3755
MBR	-11.3762
mol	-11.3762
bic	-11.3767
Scripts	-11.3767
objects	-11.377
▁blat	-11.3773
12_1	-11.3774
▁194	-11.3775
blocklist	-11.3776
▁ValidatePass	-11.3778
UX	-11.3778
▁stable	-11.3779
sliders	-11.378
▁+%	-11.3781
▁bashstuff	-11.3783
robin	-11.3787
▁emerson	-11.379
192.168.2.101	-11.379
loy	-11.3791
▁mid	-11.3795
1.49	-11.3806
▁216	-11.3813
tav	-11.3813
.110	-11.3815
scala	-11.3823
engines	-11.3825
▁experiment	-11.3826
▁144	-11.3827
zones	-11.3828
▁bi	-11.383
dlists	-11.3834
▁Outlook	-11.3836
mocks	-11.3839
tig	-11.3842
cask	-11.3843
ath	-11.3846
flori	-11.3847
▁maiven	-11.3848
▁getty	-11.3854
▁keychain	-11.3861
.2017.	-11.3865
▁development	-11.3871
▁smart	-11.3871
shen	-11.3872
Juli	-11.3875
▁ara	-11.3879
Peng	-11.388
▁byu	-11.3883
Cmd	-11.3886
experimental	-11.3889
.146	-11.3899
acce	-11.39
executor	-11.3909
▁body	-11.3913
▁iftop	-11.3915
▁spi	-11.3918
Sim	-11.3918
formation	-11.3921
/1.1/	-11.3922
▁sos	-11.3922
▁setRegi	-11.3922
vent	-11.3923
▁180	-11.3925
hex	-11.3925
▁Open	-11.3929
sdd	-11.3931
254	-11.3947
nav	-11.3958
▁primer	-11.3962
abit	-11.3967
▁[:	-11.3974
▁empty	-11.398
cnt	-11.3988
TV	-11.3999
▁pul	-11.4007
nag	-11.4017
136	-11.402
unt	-11.402
IE	-11.4022
▁hw	-11.4032
worker	-11.4035
▁popcorn	-11.4036
▁}'	-11.4038
▁snmpd	-11.4052
hole	-11.4053
▁adding	-11.4079
SV	-11.408
▁App	-11.4082
▁ignore	-11.4094
▁184	-11.4119
▁polipo	-11.4131
▁basic	-11.4138
AA	-11.4143
▁Java	-11.4143
233	-11.4146
RM	-11.4148
arg	-11.4148
ebc	-11.4148
▁downloads	-11.4163
chris	-11.4189
▁zs	-11.419
inning	-11.4208
ner	-11.4214
Matlab	-11.4229
functions	-11.423
oracle	-11.4231
ica	-11.4232
crontab	-11.4232
Home	-11.4236
▁150.150.150.	-11.4237
▁analysis	-11.4241
▁bl	-11.4247
HW	-11.4255
▁bit	-11.4256
▁postfix	-11.4257
Git	-11.426
▁di	-11.4261
▁an	-11.4264
rap	-11.4289
nvm	-11.429
▁Pen	-11.4293
camp	-11.4345
▁player	-11.4355
Video	-11.4361
slider	-11.4372
▁bluegreen	-11.4374
Drive	-11.4379
▁coding	-11.4386
updates	-11.4386
revers	-11.4391
▁cvf	-11.4398
Template	-11.4403
の	-11.4404
Qogir	-11.4404
TMPDIR	-11.4404
Cache	-11.4404
DataScience	-11.4404
Torrent	-11.4404
exclude	-11.4404
▁Session	-11.4404
▁vsftpd	-11.4404
-8.8.0	-11.4404
Version	-11.4404
factories	-11.4404
transport	-11.4404
銝	-11.4404
13-02-1	-11.4404
summary	-11.4404
guard	-11.4404
anntools	-11.4404
-2018.1	-11.4404
company	-11.4404
-4.2.1	-11.4404
Tools	-11.4405
discover	-11.4406
Prac	-11.4407
broken	-11.4408
item	-11.4409
midterm	-11.4417
borwind	-11.4418
▁FP	-11.4419
▁Bre	-11.4423
corn	-11.4433
ane	-11.4434
med	-11.4434
▁Admin	-11.4434
dmg	-11.4435
▁plugged	-11.4435
▁pythonWorkspace	-11.4435
-2.6.	-11.4436
2.22.	-11.4438
vault	-11.4446
drivers	-11.4446
DRO	-11.4456
▁yamasaki	-11.446
▁FedoraDots	-11.446
▁172.18.1.15	-11.446
long	-11.4461
whatis	-11.4465
▁max	-11.4467
CE	-11.4469
▁Windows	-11.4472
▁diesbacher	-11.4472
▁helen	-11.4481
dmo	-11.4484
▁arduino	-11.4485
▁sites	-11.4486
Win	-11.4491
▁team	-11.4496
▁Ad	-11.4497
▁unu	-11.4498
OT	-11.4505
▁right	-11.451
▁prefix	-11.4521
▁orobardet	-11.4522
For	-11.4524
▁moca	-11.4527
140	-11.4541
711	-11.4545
▁description	-11.4547
dpi	-11.4562
▁bidder	-11.4565
▁He	-11.4569
reg	-11.4576
▁070	-11.4578
rading	-11.4579
aG	-11.4587
LO	-11.46
brightnes	-11.4602
Port	-11.4616
▁fuse	-11.4617
ley	-11.4621
edev	-11.4622
▁pokemmo	-11.4623
▁122.	-11.464
niko	-11.4647
()	-11.4656
▁pen	-11.4665
631	-11.467
▁./091	-11.4698
ional	-11.4702
charm	-11.4704
▁pdommeti	-11.4711
ste	-11.4714
▁InputDrivers	-11.4737
▁anim	-11.4763
ssembly	-11.4769
trip	-11.477
airdata	-11.4779
▁prop	-11.4791
filer	-11.4791
▁fstab	-11.4795
hil	-11.48
▁vn	-11.482
tain	-11.4831
javadoc	-11.4833
gov	-11.4863
▁box	-11.4869
driver	-11.4898
flag	-11.4903
headless	-11.4928
xampp	-11.4939
flow	-11.4939
hooks	-11.4939
vcprompt	-11.494
League	-11.494
jupyter	-11.494
downward	-11.494
tail	-11.494
sqlite	-11.4942
toeknee	-11.4943
alpine	-11.4943
DISPLAY	-11.4943
testando	-11.4944
gatk	-11.4944
deweylab	-11.4944
progress	-11.4944
dummy	-11.4945
phone	-11.4945
overcloud	-11.4946
kitchen	-11.4946
frame	-11.4946
Attributes	-11.495
HEAD	-11.4952
metasploit	-11.4956
deluge	-11.4957
power	-11.496
cnn	-11.4967
sddm	-11.4983
▁usb	-11.4993
bzr	-11.5
042	-11.5019
▁dos	-11.5023
btle	-11.5025
▁*/*	-11.5061
@10.1.26.23:	-11.5064
▁Download	-11.5078
▁rule	-11.508
▁calcula	-11.5082
XX	-11.5084
▁instal	-11.5095
▁"${	-11.5097
▁diessbacher	-11.51
Clean	-11.5106
applet	-11.5109
▁histor	-11.5111
lToC	-11.5113
royecto	-11.5113
017.	-11.5118
-172-31-	-11.5118
wordRever	-11.5118
▁ZNuked	-11.5118
-3.5.4	-11.5118
pjiang	-11.5118
了	-11.5118
1057_008	-11.5118
▁leanote	-11.5118
新	-11.5118
▁10.96.17.	-11.5118
▁battery	-11.5118
▁libreoffice	-11.5118
▁thomas	-11.5118
AZUL	-11.5118
LOAD	-11.5118
amburg	-11.5118
before	-11.5118
bhask	-11.5118
dnsmasq	-11.5118
franklin	-11.5118
inocente	-11.5118
loadavg	-11.5118
lokijs	-11.5118
people	-11.5118
relocatable	-11.5118
securite	-11.5118
и	-11.5118
ит	-11.5118
й	-11.5118
▁lijingjiang	-11.5118
▁parcial	-11.5118
▁spotify	-11.5118
▁terminator	-11.5118
▁tomohiro	-11.5118
Delete	-11.5118
IST	-11.5118
OPEN	-11.5118
elbow	-11.5118
homebrew	-11.5118
modify	-11.5118
ountReads	-11.5118
pybrain	-11.5118
samsung	-11.5118
tweak	-11.5118
▁addressbook	-11.5118
▁twilio	-11.5118
▁anchor	-11.5118
aeiou	-11.5118
robuntu	-11.5118
▁Find	-11.5118
▁directive	-11.5118
dragon	-11.5118
.18.1.5	-11.5118
gdynet	-11.5118
suspend	-11.5118
unicode	-11.5118
,443	-11.5118
▁Sales	-11.5118
-17.04	-11.5118
randread	-11.5118
String	-11.5118
alpha	-11.5118
cloudName	-11.5118
▁5414	-11.5118
rincip	-11.5119
@2.0.1	-11.5119
Swipe	-11.5119
▁chromedriver	-11.5119
▁822_	-11.5119
dexter	-11.5119
▁"*~"	-11.5119
▁192.168.5.1	-11.5119
onetary	-11.5119
▁qtconsole	-11.5119
workstation	-11.5119
trict	-11.5119
▁"$@"	-11.5119
mytestimage	-11.5119
lanes	-11.5119
vmci	-11.512
biz	-11.512
▁forum	-11.512
photo	-11.512
matic	-11.512
puppetlabs	-11.512
mask	-11.512
flashcard	-11.5121
▁vmmon	-11.5121
5792	-11.5121
bench	-11.5121
▁rho	-11.5121
▁172.18.1.0/	-11.5121
||"	-11.5121
▁,,	-11.5122
▁jeff	-11.5122
flashplugin	-11.5122
[^	-11.5122
▁openmpi	-11.5123
costa	-11.5123
mydisk	-11.5123
▁0.0.0.0:8080	-11.5124
matlabstuff	-11.5124
▁\#	-11.5124
▁usernames	-11.5125
▁Bike	-11.5126
▁bwhite	-11.5126
0056	-11.5126
▁glibc	-11.5126
dora	-11.5127
magar	-11.5129
▁Car	-11.5129
-4.0	-11.513
Suyy	-11.5131
reporter	-11.5131
Suy	-11.5131
BRE	-11.5134
▁1368	-11.5134
▁vmw	-11.5135
▁che	-11.5136
▁libboost	-11.5136
▁smbpasswd	-11.5136
▁thunderbird	-11.5139
▁TP	-11.5141
talloc	-11.5142
dvd	-11.5142
▁MX	-11.5143
playlists	-11.5143
▁031	-11.5143
▁dmenu	-11.5145
▁exel	-11.5145
▁nofile	-11.5147
lower	-11.5147
ium	-11.5147
▁dunst	-11.5149
kho	-11.515
);	-11.5152
searcher	-11.5153
calculator	-11.5155
();	-11.5156
MO	-11.5159
▁layout	-11.5159
addrlabel	-11.5162
openvpn	-11.5164
▁swiper	-11.5165
▁magic	-11.5165
▁2019'	-11.5166
▁secu	-11.5173
▁ug	-11.5174
▁'^	-11.5174
bfb	-11.5175
77.13	-11.5175
▁14141	-11.5177
▁14\	-11.5178
▁selenium	-11.5178
▁aax	-11.5181
orpus	-11.5188
omeOrder	-11.519
▁article	-11.5192
▁edureka	-11.5192
▁cart	-11.5193
here	-11.5194
dry	-11.5197
EX	-11.5203
▁lon	-11.5204
▁copyright	-11.5221
QL	-11.5225
▁192.168.1.11	-11.5226
0076	-11.523
rnk	-11.523
0608	-11.5236
890	-11.525
▁wallpaper	-11.525
_3_2	-11.5268
▁126	-11.5279
▁school	-11.5286
iqu	-11.5287
▁libinput	-11.529
none	-11.5292
das	-11.5304
@7	-11.531
>"	-11.5324
udns	-11.5329
▁deluged	-11.5337
▁Herders	-11.534
▁192.168.2	-11.5341
rts	-11.5342
▁libstdc	-11.5354
latin	-11.5368
docs	-11.5369
▁fractal	-11.5375
▁crl	-11.5384
.235	-11.5386
pila	-11.5391
▁adm	-11.5393
2023	-11.5394
created	-11.5405
Thi	-11.541
.0'	-11.541
erfl	-11.5411
▁labels	-11.5419
▁bb	-11.542
▁how	-11.5422
wifite	-11.5428
▁178	-11.5429
zy	-11.5433
702	-11.5447
▁111	-11.5453
FOR	-11.5454
drv	-11.5459
▁OS	-11.5473
DIR	-11.5485
Thu	-11.5488
▁gim	-11.5496
rek	-11.5496
gem	-11.5501
▁roll	-11.5518
876	-11.5539
▁statu	-11.5541
mmc	-11.557
▁cros	-11.5576
lines	-11.5593
UB	-11.5631
123456	-11.5645
"*20	-11.565
cpanm	-11.566
rni	-11.5664
attr	-11.5664
=5	-11.5679
▁No	-11.5686
sign	-11.5692
sell	-11.5701
econd	-11.5707
Dev	-11.5711
school	-11.5711
5.5	-11.5713
hold	-11.5713
simple	-11.5713
460	-11.5715
study	-11.5716
super	-11.5719
"]	-11.5722
jquery	-11.5726
kern	-11.5726
Ql	-11.5728
shutdown	-11.5728
STAR	-11.5739
▁dunstrc	-11.5746
▁xclip	-11.5748
hop	-11.5755
fontconfig	-11.5759
inittab	-11.576
pki	-11.5761
232	-11.5773
wis	-11.5778
386	-11.5786
byu	-11.5795
546	-11.5795
detect	-11.5798
than	-11.5799
Order	-11.5808
▁dis	-11.5821
▁directory	-11.5837
kde	-11.5842
reference	-11.5843
Font	-11.5844
/^$/	-11.5859
Strange	-11.5864
You	-11.5866
01@	-11.5867
▁Movies	-11.587
Mod	-11.5875
pac	-11.5882
Work	-11.5884
elabasa	-11.5887
jonathon	-11.5887
bitrix	-11.5888
certificates	-11.5888
▁iPhone	-11.5888
-20190815/	-11.5888
981213	-11.5888
COLORS	-11.5888
ETRG	-11.5888
NotreDev	-11.5888
PNG	-11.5888
_2019.4.243	-11.5888
activator	-11.5888
ação	-11.5888
bird	-11.5888
destination	-11.5888
recursive	-11.5888
standalone	-11.5888
triggers	-11.5888
unauthenticated	-11.5888
▁Exercicios	-11.5888
▁myCentOSVM	-11.5888
djingo	-11.5888
amazon	-11.5888
shchudasama	-11.5888
▁nxtOSE	-11.5888
-1.12.2	-11.5888
Humidity	-11.5888
KEY	-11.5888
Demo	-11.5888
friend	-11.5888
Folder	-11.5888
office	-11.5888
fsSL	-11.5888
-4.0.2/	-11.5888
11618	-11.5888
15796249	-11.5888
Time	-11.5888
sqlservr	-11.5888
Flowpack	-11.5888
▁lampstack	-11.5888
htdocs	-11.5889
gitautopush	-11.5889
▁homeOrder	-11.5891
vers	-11.5891
▁Jenkinsconfig	-11.5893
rgb	-11.5893
logging	-11.5893
droge	-11.5894
▁deployment	-11.5895
2.3.1	-11.5898
▁diog	-11.5899
409	-11.5899
xyz	-11.59
1080	-11.5901
▁444	-11.5902
▁gist	-11.5907
_61/	-11.5909
orange	-11.5913
args	-11.5913
▁'/^	-11.5915
styles	-11.5925
Fonts	-11.5932
▁mjpg	-11.5937
▁gru	-11.5938
usto	-11.5945
▁888	-11.5963
177	-11.5971
yang	-11.5973
▁rosserial	-11.5981
▁lycancoin	-11.5982
▁registry	-11.5982
▁Picture	-11.5982
558	-11.5987
Samples	-11.599
pick	-11.5996
tech	-11.6006
965	-11.6011
cmds	-11.6014
anr	-11.6023
libre	-11.6028
chek	-11.6037
4-10	-11.6052
▁readline	-11.6059
▁commands	-11.6063
▁myproject	-11.607
▁blah	-11.6081
▁League	-11.6084
▁jupyter	-11.6084
▁downward	-11.6084
cisco	-11.6087
sslab	-11.6092
JI	-11.6093
most	-11.6103
▁environments	-11.6108
▁cinnamon	-11.6113
sck	-11.6119
▁Thumb	-11.6128
_160801	-11.6143
▁edituser	-11.6153
GA	-11.6166
elta	-11.618
jas	-11.618
macro	-11.6191
Qq	-11.6209
664	-11.6219
439	-11.6224
dge	-11.6229
▁1474	-11.6248
cross	-11.6249
girls	-11.6257
3.16	-11.6268
ico	-11.6298
▁Source	-11.6321
cow	-11.6323
lette	-11.6328
love	-11.6352
based	-11.6352
quitt	-11.6353
chu	-11.6358
+5	-11.6364
▁chat	-11.6373
Great	-11.638
truetype	-11.6385
wrapper	-11.6387
▁updat	-11.6408
hane	-11.6411
6-1	-11.6426
▁prime	-11.6434
llback	-11.6449
nova	-11.6477
Mira	-11.6484
myname	-11.6507
remov	-11.6508
fast	-11.6508
command	-11.6511
▁mu	-11.6515
stage	-11.6522
▁roo	-11.6524
egister	-11.6527
▁Jul	-11.654
description	-11.6543
smart	-11.6544
MySQL	-11.6544
Testing	-11.6545
inventory	-11.6545
weather	-11.6546
pulseaudio	-11.6547
vendor	-11.6548
pubmed	-11.6549
dhcpcd	-11.6549
hpcc	-11.655
primeiro	-11.6551
iftop	-11.6552
mot	-11.6555
yii	-11.6557
bower	-11.6558
2222	-11.6558
dnf	-11.6564
504	-11.6565
insta	-11.6569
libinput	-11.6569
register	-11.6572
diff	-11.6582
▁hig	-11.6587
restart	-11.6593
▁1445	-11.6597
Models	-11.6604
xcode	-11.661
Inte	-11.6632
▁har	-11.664
each	-11.6642
race	-11.6645
bject	-11.665
catmouse	-11.6655
584	-11.6658
755	-11.6673
▁genera	-11.6676
setting	-11.6693
ranch	-11.6706
2048	-11.6708
ohnston	-11.6716
converter	-11.6718
xcol	-11.6718
zilla	-11.6719
ontroladores	-11.672
NAME	-11.672
▁zombie	-11.6721
▁stude	-11.6721
ichael	-11.6721
/2018	-11.6721
John	-11.6721
sophia	-11.6721
warehouse	-11.6721
▁kusto	-11.6721
▁zenburn	-11.6721
格	-11.6721
AndPairedEnd	-11.6721
exampls	-11.6721
populate	-11.6721
revise	-11.6721
▁phantom	-11.6721
▁ticketswap	-11.6721
一	-11.6721
mpcsroot	-11.6721
sasuke	-11.6721
▁VMware	-11.6721
▁translate	-11.6721
ENV	-11.6721
Fernando	-11.6721
SELECT	-11.6721
_160715_1626	-11.6721
always	-11.6721
basics	-11.6721
escrever	-11.6721
manjunath	-11.6721
nagaraj	-11.6721
overwrite	-11.6721
phrase	-11.6721
tooltwist	-11.6721
к	-11.6721
▁127.0.0.1:8419	-11.6721
▁Amix	-11.6721
▁Practice	-11.6721
▁cruft	-11.6721
▁humanresources	-11.6721
▁identity	-11.6721
▁macchanger	-11.6721
▁publish	-11.6721
▁scrollspy	-11.6721
▁syncthing	-11.6721
▁ветк	-11.6721
问	-11.6721
题	-11.6721
7-04-26_22-10-56	-11.6721
Basic	-11.6721
_160803_143800	-11.6721
advertise	-11.6721
architecture	-11.6721
ccollab	-11.6721
makerfaire	-11.6721
privilege	-11.6721
vulscan	-11.6721
▁65000	-11.6721
▁Westphal	-11.6721
▁checkpoints	-11.6721
▁libncurses	-11.6721
aveholmes	-11.6721
▁libxcb	-11.6721
-2017-04-26_23-	-11.6721
birdie	-11.6721
mgile	-11.6721
▁192.168.31.1	-11.6721
▁problema	-11.6721
Lecker	-11.6721
▁customers	-11.6721
▁dadbot	-11.6721
▁depmod	-11.6721
LIB	-11.6721
welcome	-11.6721
{123,	-11.6721
@198.18.81.2	-11.6721
alchem	-11.6721
iTerm	-11.6721
receive	-11.6721
▁Jack	-11.6721
monaco	-11.6721
大	-11.6721
pddl	-11.6721
▁libintl	-11.6721
▁order	-11.6721
quip	-11.6721
manifest	-11.6721
alumn	-11.6721
indic	-11.6721
libcrypto	-11.6721
▁ranFiles	-11.6721
▁VGA	-11.6721
presto	-11.6721
USERNAME	-11.6721
▁htpasswd	-11.6721
▁XML	-11.6721
▁dialog	-11.6721
1-09-	-11.6721
▁else	-11.6721
openwrt	-11.6721
▁ntfs	-11.6721
▁pharo	-11.6722
/2010/04/*	-11.6722
▁urllib	-11.6722
-31937	-11.6722
hammer	-11.6722
Rome	-11.6722
▁rpmfusion	-11.6722
verbs	-11.6722
-2.21	-11.6722
xmodmap	-11.6722
▁freeze	-11.6722
▁baru	-11.6722
trueline	-11.6723
numero	-11.6723
▁Repo	-11.6723
PYTHONPATH	-11.6723
▁digitar	-11.6723
▁talker	-11.6723
utation	-11.6724
($	-11.6724
▁\<	-11.6724
ecdsa	-11.6724
ALL	-11.6724
Crack	-11.6725
▁20001	-11.6725
▁466	-11.6725
mahout	-11.6725
▁aass	-11.6725
preco	-11.6725
>1	-11.6726
ACCE	-11.6726
design	-11.6726
-30823	-11.6727
."}'	-11.6727
logtofile	-11.6727
▁dwm	-11.6727
▁juno	-11.6728
▁just	-11.6728
ottle	-11.6728
[]	-11.6729
notebook	-11.673
▁Database	-11.6731
▁754	-11.6731
▁mine	-11.6731
GUID	-11.6732
▁2236	-11.6732
nnn	-11.6733
▁msfdb	-11.6733
▁clen	-11.6734
=~/	-11.6734
channels	-11.6735
177.2	-11.6735
▁iql	-11.6735
-1.7.1	-11.6735
anil	-11.6736
▁10.1.1	-11.6736
▁nginximage	-11.6737
1,10	-11.6737
namedse	-11.6738
ICE	-11.6739
5.18.0	-11.6741
▁next	-11.6744
▁footest	-11.6744
▁10.154.0.	-11.6745
▁massrooter	-11.6745
▁tut	-11.6745
ATE	-11.6746
▁typescript	-11.6746
▁Jenkinsfile	-11.6746
regex	-11.6747
▁libusb	-11.6747
block	-11.6748
object	-11.6748
skip	-11.6748
mirrors	-11.675
atnp	-11.675
1979	-11.6751
sass	-11.6751
rati	-11.6751
eter	-11.6753
▁duas	-11.6757
staged	-11.6757
▁TypefaceJS	-11.676
uber	-11.6761
luci	-11.6762
89@	-11.6763
pidof	-11.6764
_22-	-11.6765
▁hci	-11.6765
836	-11.6766
▁working	-11.6766
robo	-11.6767
pipeline	-11.6768
▁changes	-11.6768
provision	-11.6768
1992	-11.6769
tress	-11.677
registration	-11.6772
blocked	-11.6772
▁virtual	-11.6772
:5353	-11.6774
▁libgtk	-11.6775
▁inherits	-11.6776
ency	-11.6777
▁tz	-11.678
▁octa	-11.6783
@10.1.26.1	-11.6784
▁record	-11.6792
nice	-11.6795
▁fav	-11.6796
gular	-11.68
ROS	-11.6801
pari	-11.6807
▁Readme	-11.6808
asset	-11.6808
▁Name	-11.6808
▁8000	-11.6808
▁wallet	-11.6824
.33.	-11.6824
-52	-11.6827
pear	-11.6833
ase	-11.6837
▁fcitx	-11.6839
▁jwm	-11.6841
datastructure	-11.6844
▁744	-11.6846
mixe	-11.6846
eps	-11.6846
▁lpr	-11.6847
ljo	-11.6847
▁ass	-11.6848
yan	-11.6849
Area	-11.685
UP	-11.6858
rwi	-11.6862
▁tow	-11.6865
##	-11.6867
▁WebGrab	-11.6871
▁ttyUSB	-11.6871
▁torch	-11.6871
▁mcrypt	-11.6873
▁submodule	-11.6873
▁change	-11.6874
CD	-11.6879
preferences	-11.6881
▁\[	-11.6881
▁hist	-11.6883
4.94	-11.6887
▁139	-11.69
Common	-11.6904
webkit	-11.6905
4.45	-11.6914
Gir	-11.692
▁123456	-11.6926
▁hooks	-11.6935
▁xampp	-11.6935
▁vcprompt	-11.6935
react	-11.6936
boti	-11.6946
▁"34	-11.6955
▁enp	-11.6959
▁Git	-11.6959
SET	-11.6961
▁label	-11.6974
▁ran	-11.6975
▁whoa	-11.6983
ega	-11.6986
▁sign	-11.7005
inha	-11.7021
steam	-11.7023
▁inittab	-11.7025
▁phpinfo	-11.7026
▁ED	-11.703
▁william	-11.7032
▁rrd	-11.7032
0073	-11.7039
▁noi	-11.7041
8.22	-11.7046
svscan	-11.7046
sure	-11.7054
404.	-11.7059
intra	-11.7084
▁pol	-11.7086
subsamp	-11.7087
▁concat	-11.7087
doom	-11.7099
756	-11.7108
▁wgb	-11.7113
▁samples	-11.7116
hostd	-11.712
rtl	-11.7126
7'	-11.7135
115000	-11.7136
Gw	-11.7139
rocket	-11.7141
assembl	-11.7147
tpi	-11.7147
:0.0	-11.7158
-2.12	-11.717
5780	-11.7193
ttool	-11.7261
inter	-11.7271
▁og	-11.7293
upr	-11.7294
1200	-11.7302
Qqe	-11.7308
swo	-11.7312
RF	-11.7336
catkin	-11.7356
▁5.2	-11.7369
IM	-11.7399
ban	-11.7438
thinkfan	-11.7456
journal	-11.7457
offboard	-11.7459
keychain	-11.7459
alias	-11.7462
readline	-11.7465
1407	-11.7481
irtualenvwrapper	-11.7481
▁msc	-11.7508
▁192	-11.7526
salcedo	-11.7539
obs	-11.754
▁tp	-11.7542
▁10.1.26.23	-11.7577
model	-11.7579
Script	-11.7585
▁mn	-11.7585
upport	-11.7601
▁../../../../..	-11.7602
plan	-11.7609
▁succe	-11.762
Program	-11.7629
ulous	-11.763
brute	-11.763
pentadactyl	-11.763
flood	-11.763
wanggaobin	-11.763
▁assemLang	-11.763
▁iotweek	-11.763
▁jmespath	-11.763
▁macgyver	-11.763
▁segundo	-11.763
。	-11.763
mgmt	-11.763
calendar	-11.763
iPhoneDir	-11.763
▁minecraft	-11.763
gabriel	-11.763
cakenet	-11.763
Ashley	-11.763
▁womp	-11.763
▁motif	-11.763
▁great	-11.763
Resume	-11.763
2462	-11.763
-6.16	-11.7631
ngram	-11.7631
ocial	-11.7631
▁Alexa	-11.7631
CPP	-11.7631
▁resume	-11.7631
▁texinfo	-11.7631
Course	-11.7631
idential	-11.7632
ivan	-11.7632
▁hdfs	-11.7632
▁timeshift	-11.7632
Free	-11.7632
▁Views	-11.7633
jack	-11.7634
-3.3.	-11.7636
phalcon	-11.7637
776	-11.7638
▁resolvconf	-11.7638
toolchain	-11.7639
▁sysstat	-11.7642
Classes	-11.7642
▁entr	-11.7643
fern	-11.7648
footer	-11.7654
ards	-11.7656
▁sexysw	-11.7656
▁fcmxmppserver	-11.7656
cici	-11.7661
▁llvm	-11.7665
coin	-11.7669
1579625	-11.7671
▁ecollectionz	-11.7674
Jar	-11.7688
▁Elbow	-11.7691
simplelink	-11.7692
ldapscripts	-11.7696
▁keyfile	-11.7701
▁Zati	-11.7708
igore	-11.772
736	-11.7721
▁webadmin	-11.7722
lop	-11.7723
▁pexpect	-11.7726
▁NeosIo	-11.7726
▁two	-11.7727
books	-11.7731
▁rmtoo	-11.7731
websocket	-11.7733
620	-11.7737
hist	-11.7757
▁YOU	-11.776
DPS	-11.7766
Qe	-11.7769
xia	-11.777
▁generic	-11.7778
▁"(	-11.7779
peer	-11.7795
918	-11.7801
agg	-11.7806
▁Ct	-11.7808
Inc	-11.7812
▁offboard	-11.7813
ACC	-11.7818
bits	-11.7818
▁grovepi	-11.7823
.107	-11.7864
keM	-11.7869
▁osp	-11.7876
kun	-11.7876
igure	-11.7879
▁iprules	-11.788
See	-11.7886
icken	-11.7887
▁RS	-11.7897
schemas	-11.79
amath	-11.7901
aou	-11.7909
RV	-11.793
hero	-11.7939
getty	-11.7944
9.23	-11.7951
dobe	-11.7955
svn	-11.8019
▁4000	-11.8025
7-0	-11.8041
mop	-11.8049
planet	-11.8049
aku	-11.8066
16.0	-11.807
▁01204324	-11.8082
▁proje	-11.8094
ntpa	-11.8146
ssw	-11.8164
epo	-11.8214
▁chr	-11.8217
members	-11.8231
7.2.1	-11.8237
▁FlaskHello	-11.8256
Use	-11.8258
▁Vi	-11.8263
▁tun	-11.8273
1-5	-11.8274
dead	-11.8292
adobe	-11.8298
sume	-11.8302
9]	-11.8386
6.14	-11.8389
5.10.1	-11.8405
Picture	-11.8408
hell	-11.841
task	-11.8412
layout	-11.8413
▁hea	-11.8429
WebGrab	-11.8451
ttyUSB	-11.8451
orobardet	-11.8453
maiven	-11.8453
Facultate	-11.8453
parallel	-11.8454
another	-11.8454
sacha	-11.8454
LICENSE	-11.8455
Packages	-11.8455
tiago	-11.8455
migration	-11.8456
vboxsf	-11.8456
scrobble	-11.8456
fastQC	-11.8456
sakura	-11.8457
maestro	-11.8457
Char	-11.8458
353	-11.8458
freetype	-11.8461
mech	-11.8468
▁poli	-11.8471
7-1	-11.8473
development	-11.8473
torch	-11.8474
lport	-11.8483
iprules	-11.8491
0.0.1	-11.8499
rsem	-11.8514
keymap	-11.8517
mcrypt	-11.8526
onnector	-11.8527
arquivobin	-11.8535
▁qua	-11.8543
62.17	-11.8545
tili	-11.8547
psy	-11.8552
▁eli	-11.8571
alloc	-11.8575
▁clea	-11.8595
▁neig	-11.8604
jump	-11.8606
\[	-11.8607
rontend	-11.8613
▁100.100.100.	-11.8615
exo	-11.8615
18.0.	-11.8616
▁concatAxoFastqF	-11.8628
request	-11.8629
▁Gyeong	-11.8629
kumari	-11.863
PuzzleState	-11.863
slave	-11.863
▁adutzu	-11.863
datamanagement	-11.863
inverts	-11.863
Measuring	-11.863
WiFi	-11.863
Filter	-11.863
laravel	-11.863
simplifi	-11.863
]*\/	-11.863
priority	-11.863
.6.0.8	-11.863
Google	-11.863
aurelia	-11.863
little	-11.863
privoxy	-11.863
uality	-11.863
verifikasi	-11.863
▁BoreWell	-11.863
▁META	-11.863
▁optimize	-11.863
摮	-11.863
4-1.4.17	-11.863
:8.4.0	-11.863
@192.168.80.17	-11.863
@210.2.172.3	-11.863
GameLauncher	-11.863
HoHo	-11.863
Lamontsm	-11.863
Manifest	-11.863
OnlyOneLaneTest	-11.863
PASSWORD	-11.863
alghGvt	-11.863
background	-11.863
distrib	-11.863
dynamic	-11.863
interrupt	-11.863
merican	-11.863
pbxproj	-11.863
protected	-11.863
trickyatdispatch	-11.863
wiringPi	-11.863
▁"^10[1-9]{4,4}"	-11.863
▁'/\(\.10\	-11.863
▁10.1.26.1	-11.863
▁2019-15107	-11.863
▁Emerson	-11.863
▁GreenLedO	-11.863
▁NONE	-11.863
▁PassCrack	-11.863
▁SandBox	-11.863
▁UpdateLocation	-11.863
▁\(1997\)/	-11.863
▁buglione	-11.863
▁compartida	-11.863
▁deepthi	-11.863
▁enumerate	-11.863
▁gustavobruning	-11.863
▁lvxiaoling	-11.863
▁pedroluiz	-11.863
▁rabbitmq	-11.863
▁spoiled	-11.863
▁testvolume	-11.863
▁zerada	-11.863
类库	-11.863
Authors	-11.863
dilipprasoon	-11.863
ecture	-11.863
eportCoverServer	-11.863
jekyll	-11.863
nyehle	-11.863
schoolmom	-11.863
▁1.3.6.1.2.1.2	-11.863
▁Airplane	-11.863
▁depend	-11.863
▁shortcut	-11.863
3-2017-05-23-	-11.863
79899	-11.863
:400::	-11.863
enabled	-11.863
twitter	-11.863
р	-11.863
▁AmbigiousDemo	-11.863
▁palindrome	-11.863
▁third	-11.863
caincharge	-11.863
shahanaaz	-11.863
▁zzz	-11.863
置	-11.863
е	-11.863
▁Chat	-11.863
▁license	-11.863
interactive	-11.863
sdfsd	-11.863
umanji	-11.863
stopwatch	-11.863
GEM	-11.863
▁Rank	-11.863
50568	-11.863
burst	-11.863
CTION	-11.863
tooltip	-11.863
Birds	-11.863
▁SHA	-11.863
khalid	-11.863
改	-11.863
▁split	-11.863
ARY	-11.863
中	-11.863
adapter	-11.863
curses	-11.863
Tree	-11.863
▁Moon	-11.863
-4.2.2	-11.863
Part	-11.863
▁justdomains	-11.863
3.0.0	-11.863
icket	-11.863
@192.	-11.863
ENT	-11.863
dkms	-11.863
▁calculation	-11.863
ymou	-11.863
ility	-11.863
▁pedro	-11.863
/#2019/	-11.8631
▁heidi	-11.8631
▁';'	-11.8631
59.103	-11.8631
raspberry	-11.8631
▁requests	-11.8631
▁libomp	-11.8631
▁listtran	-11.8631
widget	-11.8631
▁extensions	-11.8631
GitHub	-11.8631
▁exfat	-11.8631
▁Beast	-11.8631
tbj	-11.8631
junta	-11.8631
EDIT	-11.8631
fedora	-11.8631
▁124"	-11.8631
gkt	-11.8631
="${	-11.8632
▁libcec	-11.8632
:100:	-11.8632
602	-11.8632
▁pcre	-11.8632
▁penda	-11.8632
▁woo	-11.8632
mbstring	-11.8632
kick	-11.8632
Lib	-11.8633
Kod	-11.8633
railties	-11.8633
dvia	-11.8633
Mutation	-11.8633
▁"^-"	-11.8633
dupes	-11.8633
ahlC	-11.8633
ostafa	-11.8633
trader	-11.8634
archey	-11.8634
▁${#	-11.8634
52.14	-11.8634
2.133	-11.8634
▁86.1	-11.8635
▁6418	-11.8635
▁issues	-11.8635
30.25	-11.8635
designer	-11.8635
implemented	-11.8636
▁selftype	-11.8636
.9.3-	-11.8636
ores	-11.8636
MCT	-11.8636
perforce	-11.8637
Sens	-11.8637
confirm	-11.8637
TOO	-11.8637
="$	-11.8638
condor	-11.8638
▁alsi	-11.8638
▁.1.3.6.1.2.1.2.	-11.8638
direct	-11.8639
▁3003	-11.8639
@192.168.122.8	-11.8639
▁\$	-11.8642
▁Brow	-11.8642
@192.168.122.7	-11.8643
shiny	-11.8643
plug	-11.8643
dwb	-11.8643
▁ET	-11.8644
nfer	-11.8644
poke	-11.8645
nerdtree	-11.8646
▁fsck	-11.8646
▁1370	-11.8647
0058	-11.8648
▁Config	-11.865
▁192.168.15.106	-11.8651
autologin	-11.8652
}";	-11.8654
▁brctl	-11.8655
environments	-11.8655
▁conda	-11.8656
kalloc	-11.8656
▁conflicts	-11.8656
@172.16.0.32	-11.866
▁caso	-11.8661
vsf	-11.8662
03.22	-11.8663
pets	-11.8664
▁Const	-11.8664
hoge	-11.8665
YT	-11.8666
Driver	-11.8668
9.15	-11.8669
roms	-11.867
▁Thin	-11.8673
▁2006	-11.8674
-07-2	-11.8674
`;	-11.8676
ditional	-11.8677
▁SMSpoll	-11.8678
scheduler	-11.8681
▁1244	-11.8685
▁1401	-11.8693
flags	-11.8695
▁bspwm	-11.8698
onicons	-11.8705
▁documents	-11.8708
rement	-11.8709
▁mydockercompose	-11.8717
▁radar	-11.8717
▁caca	-11.872
interi	-11.872
excel	-11.872
3-12	-11.8725
@{	-11.8726
ttp	-11.8729
▁It	-11.8729
▁157	-11.8729
▁190	-11.8731
ulu	-11.8734
▁bazaar	-11.8736
▁manufran	-11.8736
▁final	-11.8737
details	-11.8738
mora	-11.8743
tmpfiles	-11.8745
ahl	-11.8748
▁sumitkumari	-11.8756
832	-11.8767
pictures	-11.8771
digo	-11.8772
Mue	-11.8772
▁buildmaster	-11.8773
dae	-11.8777
▁colorls	-11.8777
anner	-11.8779
▁440	-11.8786
▁80'	-11.8786
fill	-11.8787
mtu	-11.8787
[0-9]{	-11.8794
▁sumin	-11.8794
952	-11.8799
Utils	-11.8812
stk	-11.8812
mobilehdx	-11.8822
/20-	-11.8829
ravi	-11.8839
nih	-11.8846
))	-11.8851
5.159.2	-11.8855
▁such	-11.8868
tive	-11.8874
conform	-11.8882
mei	-11.89
Vin	-11.8916
▁myorig	-11.8927
648	-11.8928
bran	-11.8944
707	-11.8961
-31944	-11.9003
-319	-11.9003
Kt	-11.9016
▁150.150.150.11	-11.9025
\.*	-11.9036
myrepo	-11.9058
nCon	-11.9062
158	-11.9066
▁explo	-11.9098
$'	-11.9137
ular	-11.9141
777	-11.9153
rink	-11.9176
▁LAS	-11.9187
changed	-11.9209
Side	-11.9214
agetty	-11.9223
▁golan	-11.9279
.244.	-11.9286
51.1	-11.9313
evo	-11.9337
6000	-11.9368
.150	-11.9381
Boo	-11.9385
bat	-11.945
▁stdi	-11.951
onny	-11.9529
ope	-11.9562
generic	-11.9563
Outlook	-11.9564
environ	-11.9564
eblokir	-11.9566
mosquitto	-11.9566
gracefull	-11.9594
uppe	-11.9597
chmod	-11.9601
aula	-11.961
▁[5	-11.9618
wine	-11.9661
original	-11.968
▁1413	-11.9694
parameter	-11.9698
▁option	-11.9698
typi	-11.97
▁nerd	-11.9725
ternal	-11.973
undle	-11.9731
0-65535	-11.9737
8]	-11.9737
verse	-11.9738
PYTHON	-11.9738
图	-11.9741
Element	-11.9741
assessment	-11.9741
▁transmission	-11.9741
stayku	-11.9741
é	-11.9741
▁172.18.5.1	-11.9741
==1.10.	-11.9741
Autoscale	-11.9741
BlueOracleFilms	-11.9741
FileAndString	-11.9741
MyFirstRepo	-11.9741
_2-19-13	-11.9741
colorschemes	-11.9741
distribution	-11.9741
▁Cardigans	-11.9741
▁NerdFonts	-11.9741
▁REACTJS	-11.9741
▁flathub	-11.9741
▁imagemagick	-11.9741
▁jairpirescruz	-11.9741
▁scrum	-11.9741
剛	-11.9741
嚙	-11.9741
霈	-11.9741
	-11.9741
	-11.9741
-3.7.0	-11.9741
hackinscience	-11.9741
▁component	-11.9741
▁three	-11.9741
Machine	-11.9741
matlaB	-11.9741
.000000/0	-11.9741
packettracer	-11.9741
▁192.168.56.1	-11.9741
▁pandas	-11.9741
-1.8.0-	-11.9741
5.22.0	-11.9741
PLU	-11.9741
zedboard	-11.9741
Genesis	-11.9741
▁evil	-11.9741
mongoDB	-11.9741
courseware	-11.9741
cygdrive	-11.9741
youtube	-11.9741
holbertonschool	-11.9741
quote	-11.9741
▁bison	-11.9741
▁wordpress	-11.9742
▁flex	-11.9742
Modelare	-11.9742
▁cracklib	-11.9742
HDR	-11.9742
▁prac	-11.9742
▁subsample	-11.9743
-1.890	-11.9743
▁GIT	-11.9744
.168.1	-11.9744
Idea	-11.9744
NES	-11.9744
▁djangovenv	-11.9744
current	-11.9745
cape	-11.9745
burn	-11.9745
ABLE	-11.9747
13618	-11.9749
▁proyecto	-11.9749
▁archdotfiles	-11.975
-9.0	-11.9751
Moto	-11.9752
▁MyProject	-11.9753
exemplo	-11.9753
PSO	-11.9753
Pane	-11.9754
success	-11.9757
erase	-11.9757
1.83	-11.9758
aking	-11.9761
▁12345	-11.9762
galen	-11.9762
autopod	-11.9766
TOP	-11.9767
▁demorepo	-11.9767
autojump	-11.9768
▁fax	-11.9772
▁Cou	-11.9776
/../../../../../	-11.9776
guy	-11.9778
vanc	-11.9778
Got	-11.9786
▁outline	-11.9787
Wan	-11.979
▁2010	-11.9798
boxes	-11.9818
iris	-11.9827
Icon	-11.9828
keywords	-11.9837
606	-11.984
Feb	-11.9857
830	-11.9864
Eq	-11.987
6.10	-11.9882
▁544	-11.9886
Lea	-11.9889
erre	-11.9905
codecs	-11.9906
.251	-11.993
18.19	-11.9937
VM	-11.9947
under	-11.9961
230.	-12.0002
▁PRI	-12.0025
ailed	-12.0043
uptime	-12.0053
unny	-12.0062
9.6	-12.0072
AY	-12.0127
noi	-12.0151
opensource	-12.0152
4.3.3	-12.0156
=0.0	-12.0163
2015-0	-12.0168
compile	-12.0175
ustomer	-12.0208
-----	-12.0215
Pot	-12.0254
▁1817	-12.0271
:204	-12.0298
OneLaneTest	-12.0303
LAST	-12.0328
tats	-12.0331
posts	-12.035
MES	-12.0398
5.10.0	-12.0413
.238.	-12.0441
9.21	-12.0444
127.0.0.1:	-12.0445
50-	-12.0474
1305	-12.0477
.103	-12.0503
initialize	-12.0505
atalina	-12.0529
▁\(19	-12.0533
4426	-12.0547
666	-12.0558
▁291	-12.0577
store	-12.0603
2049	-12.0605
utors	-12.065
chic	-12.0653
STR	-12.0657
582	-12.0672
aven	-12.07
2016	-12.0737
SIG	-12.0765
▁Util	-12.0766
tarea	-12.078
"^[0-9]	-12.0788
bluetooth	-12.0797
SER	-12.0797
▁59.	-12.0798
8080	-12.0798
resource	-12.0801
grovepi	-12.0811
YOU	-12.0811
fcitx	-12.0812
babymarv	-12.0812
Projekt	-12.0814
tensorflow	-12.0815
smunch	-12.0816
navigation	-12.0816
slapd	-12.0816
manjaro	-12.0816
minimatch	-12.0816
scrot	-12.0816
kibana	-12.0816
compton	-12.0817
xrandr	-12.0817
fredai	-12.0817
discord	-12.0817
cerebro	-12.0817
centos	-12.0818
chromium	-12.0818
IndiGo	-12.0819
terraform	-12.0819
gulp	-12.0819
copyright	-12.0821
agos	-12.0823
ations	-12.0823
▁finish	-12.0827
testproj	-12.0829
jwm	-12.0832
▁sig	-12.084
msgs	-12.0848
trim	-12.085
dbback	-12.0852
spark	-12.0868
blah	-12.0898
ease	-12.0908
ault	-12.092
colo	-12.0922
park	-12.0935
37.1	-12.0936
CLI	-12.0939
▁197	-12.0941
744	-12.0946
▁172.18.1.	-12.0946
ower	-12.0951
@172.16.0.3	-12.0953
▁eva	-12.0956
▁miss	-12.0959
▁shuff	-12.096
Plug	-12.0963
▁PK	-12.0964
metric	-12.0964
slide	-12.0965
▁primeir	-12.0966
3.121.	-12.0969
kmer	-12.0973
▁syste	-12.0975
1.131	-12.0978
▁typ	-12.098
▁kil	-12.0982
insIn	-12.0982
▁pulsa	-12.0982
chart	-12.0983
mirror	-12.0983
johnston	-12.0985
topwatchui	-12.0985
▁hele	-12.0987
PORT	-12.0989
chrodinger	-12.0989
▁disco	-12.0989
related	-12.099
raefik	-12.099
1.9.2	-12.099
ttings	-12.099
orphan	-12.099
▁analy	-12.0991
在	-12.0991
irebird	-12.0991
▁packet	-12.0991
品	-12.0991
た	-12.0991
和	-12.0991
craft	-12.0991
7-04-27_00-38-37	-12.0991
▁Create	-12.0991
-2018020	-12.0991
English	-12.0991
不	-12.0991
有	-12.0991
验证码	-12.0991
Value	-12.0991
keleton	-12.0991
reportcover	-12.0991
segher	-12.0991
▁1.3.6.1.2	-12.0991
.000001/0	-12.0991
Zeugo	-12.0991
ginkgo	-12.0991
imaging	-12.0991
▁libgdk	-12.0991
2@192.168.1.135	-12.0991
Ethereum	-12.0991
微信	-12.0991
成	-12.0991
类	-12.0991
-7.0.82	-12.0991
-8.5.42	-12.0991
.50.82	-12.0991
1762_000	-12.0991
198.18.58.	-12.0991
201505221358	-12.0991
4.43225:26.10626	-12.0991
6040202998	-12.0991
@10.1.26.0/24	-12.0991
@172.19.33.3	-12.0991
@172.31.45.136	-12.0991
@192.168.1.204	-12.0991
@192.168.64.16	-12.0991
Binary	-12.0991
Debian	-12.0991
Discord	-12.0991
FastHub	-12.0991
Franz	-12.0991
LISTEN	-12.0991
MavenDemo	-12.0991
Notification	-12.0991
OCK	-12.0991
OutputDrivers	-12.0991
XViD	-12.0991
\033[	-12.0991
alternate	-12.0991
category	-12.0991
detach	-12.0991
injection	-12.0991
lkjh	-12.0991
modified	-12.0991
permissions	-12.0991
ranking	-12.0991
recommend	-12.0991
swapfile	-12.0991
thermal	-12.0991
through	-12.0991
‘	-12.0991
▁"\${"	-12.0991
▁172.17.0.	-12.0991
▁Digits	-12.0991
▁Miscellaneous	-12.0991
▁Rogue	-12.0991
▁TarFiles	-12.0991
▁Untitled	-12.0991
▁contiki	-12.0991
▁describ	-12.0991
▁isntall	-12.0991
▁kanalas	-12.0991
▁mcbisite	-12.0991
▁myExpectation	-12.0991
▁timedatectl	-12.0991
▁uzbl	-12.0991
嗚	-12.0991
据	-12.0991
隞	-12.0991
雞	-12.0991
HKLM	-12.0991
Launch	-12.0991
Location	-12.0991
Russian	-12.0991
SimpleLink	-12.0991
hivsantos	-12.0991
iosevka	-12.0991
▁"1254715625	-12.0991
▁MyCircularQueue	-12.0991
▁ThisKey	-12.0991
▁\:\:	-12.0991
▁nunchu	-12.0991
7-04-26_21-41-37	-12.0991
Computin	-12.0991
Fractal	-12.0991
LOCAL	-12.0991
bjohnton	-12.0991
guizandonai	-12.0991
memory	-12.0991
tpope	-12.0991
▁daegu	-12.0991
▁directiveRender	-12.0991
@10.74.123.215:/	-12.0991
GOPATH	-12.0991
Vector	-12.0991
▁1.1.1.1	-12.0991
导出	-12.0991
IntelliJ	-12.0991
Provider	-12.0991
▁passport	-12.0991
▁sshtocrack	-12.0991
コメント	-12.0991
开	-12.0991
forward	-12.0991
▁confirmar	-12.0991
Ardui	-12.0991
djust	-12.0991
murali	-12.0991
▁break	-12.0991
▁{}\;	-12.0991
Audio	-12.0991
spacemacs	-12.0991
▁mdmsetup	-12.0991
▁nilesh	-12.0991
bonnym	-12.0991
keller	-12.0991
▁2017022	-12.0991
▁pkgnames	-12.0991
MISS	-12.0991
▁openshot	-12.0991
▁orglevel	-12.0991
@5.0.	-12.0991
flying	-12.0991
▁bvew	-12.0991
▁mkfont	-12.0991
-319192	-12.0991
▁zeus	-12.0991
attend	-12.0991
人	-12.0991
WHE	-12.0991
medium	-12.0991
snapshot	-12.0991
vswitchd	-12.0991
▁0750	-12.0991
Interface	-12.0991
-319191	-12.0991
ocean	-12.0991
▁Kody	-12.0991
▁iqlQuery	-12.0991
▁xware	-12.0991
▁finger	-12.0991
0.165	-12.0991
State	-12.0991
xfinity	-12.0991
▁getnewaddres	-12.0991
gosec	-12.0991
googlepinyin	-12.0991
business	-12.0991
verifi	-12.0991
萌	-12.0991
8.64.1	-12.0991
9.121	-12.0991
resentation	-12.0991
colum	-12.0991
grab	-12.0992
▁ripgrep	-12.0992
suite	-12.0992
▁76.1	-12.0992
▁mangle	-12.0992
value	-12.0992
▁82.4	-12.0992
▁cairo	-12.0992
mohan	-12.0992
easing	-12.0992
BOA	-12.0992
Poli	-12.0992
deborphan	-12.0992
-3.0.1	-12.0992
2002@	-12.0992
▁192.168.131.	-12.0992
flux	-12.0992
▁oneof	-12.0992
separat	-12.0992
▁WhatsA	-12.0992
124.15	-12.0992
Prov	-12.0992
@10.0.2.15	-12.0992
▁total	-12.0992
-0.11.0	-12.0992
THO	-12.0992
SAM	-12.0993
-31936	-12.0993
▁Admindns	-12.0993
daily	-12.0993
Adapt	-12.0993
unrelated	-12.0993
▁haha	-12.0993
camera	-12.0993
microsoft	-12.0993
▁vnstat	-12.0993
scratch	-12.0993
transcript	-12.0993
5.44.	-12.0993
CLE	-12.0993
98.18	-12.0994
lexa	-12.0994
worm	-12.0994
fresh	-12.0994
▁edirect	-12.0994
▁umask	-12.0994
bruno	-12.0994
▁mpicc	-12.0994
▁MAN	-12.0995
warning	-12.0995
getting	-12.0995
223.1	-12.0995
▁wehmuth	-12.0996
Oct	-12.0996
consumer	-12.0996
mssql	-12.0996
nrk	-12.0996
deft	-12.0996
letters	-12.0997
URE	-12.0997
Pod	-12.0997
Intro	-12.0997
Move	-12.0997
80.18	-12.0997
▁typora	-12.0997
Master	-12.0997
▁273	-12.0998
▁unity	-12.0998
▁trading	-12.0998
▁opencv	-12.0998
GTEST	-12.0998
▁ucp	-12.0998
▁\(2-19-13\)/	-12.0998
35.13	-12.0998
7.130	-12.0998
9.97	-12.0998
SUM	-12.0999
MAI	-12.0999
1-13-	-12.0999
Core	-12.0999
VER	-12.0999
rtha	-12.1
▁192.168.130.	-12.1
atur	-12.1
tiny	-12.1001
Hub	-12.1001
▁QT	-12.1001
yarn	-12.1001
ECT	-12.1002
192.168.122.7	-12.1002
▁probe	-12.1003
dept	-12.1003
ANT	-12.1004
dockerImage	-12.1004
▁parted	-12.1005
▁coursebuilder	-12.1005
.137.	-12.1006
▁33.1	-12.1006
▁myvirtualenv	-12.1007
▁newbranch	-12.1007
Cluster	-12.1008
ewel	-12.1008
@172.16.0.27	-12.1008
▁wifiext	-12.1008
▁semp	-12.1009
▁subversion	-12.1009
9.99	-12.1012
▁mint	-12.1012
▁xcb	-12.1012
pete	-12.1012
ztv	-12.1013
fira	-12.1013
netdeploy	-12.1013
▁made	-12.1014
RYP	-12.1014
▁autotools	-12.1016
ingsoft	-12.1016
arte	-12.1017
▁bumblebeed	-12.1017
SMO	-12.1019
running	-12.1019
▁firstrepo	-12.102
8.144.	-12.102
74.20	-12.102
Eng	-12.102
9042	-12.1021
Hot	-12.1022
▁setaf	-12.1022
uma	-12.1024
evaluation	-12.1025
7601	-12.1026
trunc	-12.1028
▁fake	-12.1028
▁20000	-12.1033
▁GCR	-12.1034
panel	-12.1035
authz	-12.1035
Your	-12.1036
arest	-12.1036
.94.9	-12.1037
▁say	-12.1038
▁{};	-12.1038
stand	-12.104
avid	-12.1042
tnote	-12.1044
conkyrc	-12.1044
','	-12.1047
VB	-12.1049
,%	-12.1051
▁2.5	-12.1055
▁testfolder	-12.1055
plnt	-12.1055
3.7/	-12.1057
▁'(	-12.1057
▁2018'	-12.1058
▁sir	-12.1059
3.1.0	-12.1061
▁296	-12.1063
erta	-12.1066
urer	-12.1067
▁CC	-12.1068
▁fine	-12.107
sumbit	-12.1071
1.0-0	-12.1073
▁jk	-12.1073
1.2.0	-12.1081
RED	-12.1084
Qst	-12.1085
OOM	-12.1089
1234567	-12.1099
▁195	-12.1106
idori	-12.1113
zei	-12.1115
fxp	-12.1125
1,1	-12.113
limb	-12.1131
finished	-12.1159
▁gnuplot	-12.1159
.*$	-12.1162
4468	-12.1194
clipboard	-12.1228
asdf	-12.1242
PY	-12.1255
_3_1	-12.126
Change	-12.1283
lepoint	-12.1286
reem	-12.1302
@150.150.150.10	-12.1366
feren	-12.1404
575	-12.1419
Calvi	-12.1464
884	-12.1464
macos	-12.1468
llcr	-12.1472
6}	-12.1507
▁member	-12.1521
1102	-12.1544
lets	-12.1548
▁1438	-12.1721
.184	-12.1727
covera	-12.1741
4375	-12.1745
revert	-12.1765
_2019_15107	-12.178
-7.0.72	-12.1841
Building	-12.1876
59.8	-12.1883
20140	-12.1903
additions	-12.1938
▁Shi	-12.194
▁166	-12.2077
{1,	-12.2113
pngfdafdaf	-12.2149
YL	-12.2163
message	-12.2203
98.5	-12.2205
▁211.71.20.	-12.2224
▁Gra	-12.2237
sumitkumari	-12.224
wallet	-12.2241
lycancoin	-12.2241
registry	-12.2241
arduino	-12.2242
LittlePigHoHo	-12.2243
credential	-12.2246
broadcom	-12.2246
vuln	-12.2247
postgresql	-12.2247
tldr	-12.2247
ncmpcpp	-12.2247
Webmin	-12.2248
openstack	-12.2249
10.1.135.83	-12.2255
cups	-12.2257
colorls	-12.2276
▁scri	-12.2301
enter	-12.2339
range	-12.2355
▁1855	-12.2375
umentation	-12.2393
▁drive	-12.2396
berry	-12.2419
rackzip	-12.2419
ー	-12.242
1057_009	-12.242
-10.0.2	-12.242
-2.16.3	-12.242
▁aaaaaaaaaa	-12.242
Challenge	-12.242
Termux	-12.242
adriana	-12.242
financi	-12.242
-10.2.5-8068393	-12.242
-2016.2.3	-12.242
10.234.58.247	-12.242
Circule	-12.242
DragAndDrop	-12.242
Fantome	-12.242
Product	-12.242
Virtual	-12.242
alactic	-12.242
bmeswiki	-12.242
gordonzu	-12.242
scrollmagic	-12.242
symbols	-12.242
▁10.1.26.1-254	-12.242
▁PolygonOverlay	-12.242
▁Turismo	-12.242
▁Tutorial	-12.242
▁cameleon	-12.242
▁close	-12.242
▁extentions	-12.242
▁mediaLoop	-12.242
▁novoArquivo	-12.242
▁widefork	-12.242
Network	-12.242
sifiqbalkhan	-12.242
▁\(1995\)	-12.242
▁haskell	-12.242
▁james	-12.242
▁securerootd	-12.242
▁Beaut	-12.242
▁branding	-12.242
recordings	-12.242
shimaimani	-12.242
traffic	-12.242
SNAPSHOT	-12.242
soundshare	-12.242
topsong	-12.242
▁Bends	-12.242
FTP	-12.242
▁ribbon	-12.242
127.0.0.1:8418	-12.242
-0.5.3	-12.242
-2.20-	-12.242
proposal	-12.242
▁#!/	-12.242
Emacs	-12.242
情	-12.242
PNS	-12.242
3-2-3	-12.242
segment	-12.242
▁Adil	-12.242
▁hkr	-12.242
▁machinelearni	-12.242
planning	-12.242
▁Help	-12.242
GET	-12.242
▁rprs	-12.242
seok	-12.242
SPAR	-12.2421
PIL	-12.2421
Save	-12.2421
▁Radiohead	-12.2421
▁photos	-12.2421
▁MihaiP	-12.2422
CMD	-12.2422
luana	-12.2422
quir	-12.2422
indent	-12.2423
buster	-12.2424
-8.24	-12.2424
intent	-12.2426
▁qcd	-12.2426
bhat	-12.2426
classic	-12.2427
1.0.1-	-12.2429
iness	-12.243
598	-12.2431
Game	-12.2431
▁utorrent	-12.2432
HED	-12.2433
odin	-12.2433
▁rank	-12.2434
rgp	-12.2434
edition	-12.2435
▁weatherdata	-12.2435
wecb	-12.2438
▁jest	-12.2441
▁cloneshen	-12.2441
▁100.100.100.4	-12.2442
▁Mil	-12.2447
hoz	-12.2449
▁192.168.4	-12.2451
1507	-12.2452
@172.18.1.5:/	-12.2454
\)\	-12.2454
-10.1	-12.2456
FW	-12.2458
-1.8.2	-12.2461
▁nfs	-12.2462
-0.11	-12.2462
wong	-12.2463
usbcpy	-12.2466
6-30	-12.2475
borro	-12.248
marceloshel	-12.2481
9318	-12.2484
acio	-12.2486
syn	-12.2492
urse	-12.2506
epel	-12.251
calls	-12.2538
▁091	-12.2596
▁abcde	-12.2612
▁graceful	-12.2615
iji	-12.2661
▁0.0.0.0:10	-12.2679
fdafdafad	-12.2698
procps	-12.2734
6.15	-12.2741
Termin	-12.2779
prepro	-12.2783
TU	-12.284
-319201	-12.2911
rtualenvwrapper	-12.2956
▁\(199	-12.2975
"*204	-12.3009
ssentials	-12.3018
770	-12.3111
6.135.1	-12.3188
16_0	-12.3203
=:0	-12.3264
World	-12.3272
19.169.	-12.3274
transformer	-12.3321
▁172.18.1.5/1000	-12.3352
sgsn	-12.3364
{$	-12.3421
▁bud	-12.3464
wgetrc	-12.3497
50000	-12.3522
}{1	-12.3611
Chang	-12.3702
▁rasp	-12.3746
flor	-12.379
Cza	-12.3792
▁employe	-12.3855
5.33.1	-12.3858
plotthis	-12.3862
manufran	-12.3906
bazaar	-12.3906
pexpect	-12.3907
NeosIo	-12.3907
Name	-12.3907
Readme	-12.3907
rmtoo	-12.3908
rosserial	-12.3908
edureka	-12.3909
article	-12.3909
Windows	-12.3909
diesbacher	-12.3909
GPIO	-12.391
VBox	-12.391
EDITOR	-12.391
verify	-12.3911
paho	-12.3911
litarvan	-12.3911
teamviewer	-12.3912
PDF	-12.3912
audit	-12.3912
tput	-12.3913
shippable	-12.3913
gogs	-12.3914
saiyuuki	-12.3914
watch	-12.3914
final	-12.3915
nmbd	-12.3915
helen	-12.3915
active	-12.3916
angular	-12.3918
Working	-12.3919
dhclient	-12.3919
▁lum	-12.392
4444	-12.3922
4.20.	-12.3961
DOO	-12.3983
ampaign	-12.3991
citi	-12.403
irror	-12.4037
▁evaluati	-12.404
▁conflict	-12.4041
▁MAT	-12.4042
Movie	-12.4043
_20180	-12.4045
▁rubi	-12.4048
▁bumblebee	-12.4051
maga	-12.4062
comple	-12.4065
▁Simp	-12.4071
▁.1.3.6.1.2.1.	-12.4072
▁testfil	-12.4073
shnavenips	-12.4073
▁implemen	-12.4076
\(2-19-13\)	-12.4076
ualifying	-12.4077
Crac	-12.408
ATA	-12.408
▁talk	-12.4082
▁mosquit	-12.4083
\.?*	-12.4083
imeiro	-12.4084
crawl	-12.4084
@10.0.2.	-12.4085
attribute	-12.4086
Engine	-12.4086
igua	-12.4086
@198.18.8	-12.4086
tutsplus	-12.4086
▁2014-09-01-055	-12.4086
入	-12.4086
我	-12.4086
更	-12.4086
¿	-12.4086
-09-26-	-12.4086
-3.141.0	-12.4086
20111014144	-12.4086
64-5.6.	-12.4086
XiaChu	-12.4086
表	-12.4086
转	-12.4086
页	-12.4086
▁cust	-12.4086
ç	-12.4086
1604-4.0.5	-12.4086
Eclipse	-12.4086
Rocket	-12.4086
benefit	-12.4086
ecipients	-12.4086
megastore	-12.4086
pinecone	-12.4086
raspicam	-12.4086
rembrandt	-12.4086
rofessional	-12.4086
smoothing	-12.4086
▁Fearless	-12.4086
▁ehmsea	-12.4086
▁squash	-12.4086
-2017-04-26_21-	-12.4086
ircular	-12.4086
-2017-04-26_22-	-12.4086
@192.168.2.34	-12.4086
@74.82.29.	-12.4086
BLUE	-12.4086
smoker	-12.4086
Ã	-12.4086
▁10.240.1	-12.4086
▁172.16.200.39	-12.4086
▁FindBin	-12.4086
▁_5.1.4_	-12.4086
▁ambari	-12.4086
▁pavucontrol	-12.4086
▁tortoise	-12.4086
-20121224.1747/	-12.4086
-4.8-1.1	-12.4086
.131.15	-12.4086
.169.8	-12.4086
.2017-05-2	-12.4086
//127.0.0.1:9327	-12.4086
/1.14.0	-12.4086
/2019.4.243	-12.4086
1900204	-12.4086
3.197.13	-12.4086
81.2.195.254	-12.4086
>~/123	-12.4086
@192.168.15.10	-12.4086
@192.168.48.33:	-12.4086
Arquivos	-12.4086
Compiled	-12.4086
FLAGS	-12.4086
Fedora	-12.4086
Francisco	-12.4086
MYUSER	-12.4086
Maiquel	-12.4086
Message	-12.4086
Microsoft	-12.4086
NOME	-12.4086
RARBG	-12.4086
SEEDS	-12.4086
Screenshot	-12.4086
THREADS	-12.4086
Tomas	-12.4086
UlongValu	-12.4086
WhappChats	-12.4086
activity	-12.4086
avidemux	-12.4086
chavez	-12.4086
dissertation	-12.4086
edroluizbuglione	-12.4086
excalibur	-12.4086
histories	-12.4086
libimobiledevice	-12.4086
mimgdisplay	-12.4086
ontaminant	-12.4086
position	-12.4086
quantum	-12.4086
reginaldo	-12.4086
suggest	-12.4086
uthentication	-12.4086
vectornav	-12.4086
vmlinuz	-12.4086
▁0.0.0.0:888	-12.4086
▁10.12.42.68	-12.4086
▁192.168.129.132	-12.4086
▁211.160	-12.4086
▁81.137.238.214	-12.4086
▁AxoMouseTest	-12.4086
▁Gallery	-12.4086
▁HomeTask	-12.4086
▁Superman	-12.4086
▁akmods	-12.4086
▁celery	-12.4086
▁diango	-12.4086
▁dotlockfile	-12.4086
▁enoskproxy	-12.4086
▁fullcompileASTT	-12.4086
▁getbalance	-12.4086
▁gijos	-12.4086
▁hunspell	-12.4086
▁kindle	-12.4086
▁libxslt	-12.4086
▁preprocess	-12.4086
▁pywinrm	-12.4086
▁relaçaonumeros	-12.4086
▁render	-12.4086
▁schrodtmp	-12.4086
▁terminado	-12.4086
▁zathura	-12.4086
ミ	-12.4086
为	-12.4086
付	-12.4086
件	-12.4086
众	-12.4086
公	-12.4086
内	-12.4086
内容を	-12.4086
剖	-12.4086
加	-12.4086
取	-12.4086
号	-12.4086
賜	-12.4086
	-12.4086
6.98.1	-12.4086
75.75.75	-12.4086
HWIUSI	-12.4086
RULES	-12.4086
Starting	-12.4086
bankersalgorithm	-12.4086
everything	-12.4086
ilesLaneOneOnly	-12.4086
merging	-12.4086
pattern	-12.4086
restricted	-12.4086
symfony	-12.4086
▁172.31.129.	-12.4086
▁AmTag	-12.4086
▁LJJ	-12.4086
▁PlainBoule	-12.4086
▁Roms	-12.4086
▁VboxClient	-12.4086
▁compiz	-12.4086
▁rhythm	-12.4086
▁slick	-12.4086
▁tricky	-12.4086
33333	-12.4086
ponchau	-12.4086
sktkhs	-12.4086
waik	-12.4086
width	-12.4086
▁23:59	-12.4086
▁\(201	-12.4086
▁contributors	-12.4086
▁myNet	-12.4086
-5.1.7	-12.4086
5@35.237.1	-12.4086
6743434	-12.4086
DEFAULT	-12.4086
OpenCart	-12.4086
Stream	-12.4086
VEN	-12.4086
_19-32	-12.4086
density	-12.4086
fullImpress	-12.4086
length	-12.4086
marvel	-12.4086
mathiasbynens	-12.4086
reliant	-12.4086
visualiz	-12.4086
в	-12.4086
correct	-12.4086
lbrecht	-12.4086
▁HPC	-12.4086
▁Running	-12.4086
▁Semi	-12.4086
▁originsgoon	-12.4086
▁tsanad	-12.4086
asound	-12.4086
sdfsf	-12.4086
▁attempt	-12.4086
▁esther	-12.4086
▁parent	-12.4086
/0.8.17/	-12.4086
/10.2.0/	-12.4086
qlcho	-12.4086
做	-12.4086
合同	-12.4086
行	-12.4086
▁dynu	-12.4086
neighbour	-12.4086
BaseCalls	-12.4086
eslint	-12.4086
nonfree	-12.4086
twig	-12.4086
▁brave	-12.4086
▁libiconv	-12.4086
▁packman	-12.4086
-8.2.3	-12.4086
信息	-12.4086
前	-12.4086
-1.4.1	-12.4086
mibs	-12.4086
▁giflib	-12.4086
osemar	-12.4086
▁execution	-12.4086
material	-12.4086
xspf	-12.4086
34.4.2	-12.4086
▁tidy	-12.4086
5.188	-12.4086
▁water	-12.4086
及	-12.4086
启	-12.4086
4.186.1	-12.4087
Item	-12.4087
mknod	-12.4087
canary	-12.4087
[^/]	-12.4087
endings	-12.4087
pngfdaf	-12.4087
▁olymp	-12.4087
▁zombiePrac	-12.4087
artifact	-12.4087
▁143.167.	-12.4087
▁4276	-12.4087
9.194	-12.4087
aspell	-12.4087
68.12	-12.4087
▁yelp	-12.4087
重	-12.4087
:5000	-12.4087
GMT	-12.4087
▁12:00	-12.4087
▁numix	-12.4087
8.183.	-12.4087
▁3816	-12.4087
▁packed	-12.4087
hydro	-12.4087
Hamid	-12.4087
443,	-12.4087
ACACXX	-12.4087
**/**/	-12.4087
quiet	-12.4087
vincent	-12.4087
"">>	-12.4087
.192.168.64.16	-12.4087
maia	-12.4087
reddy	-12.4087
0915_	-12.4087
97@	-12.4087
-31938	-12.4087
▁micaela	-12.4087
outlook	-12.4087
mueed	-12.4087
64-7.	-12.4087
▁12_8	-12.4087
-2018-1	-12.4087
Steve	-12.4087
reqs	-12.4087
yVi	-12.4087
▁goyo	-12.4087
2002'	-12.4087
pruning	-12.4087
▁aaaaaa	-12.4088
▁aria	-12.4088
-30846	-12.4088
natp	-12.4088
▁'\<	-12.4088
Pride	-12.4088
5793	-12.4088
willi	-12.4088
▁81.17	-12.4088
▁17606	-12.4088
▁3.0.2	-12.4088
▁Programs	-12.4088
glade	-12.4088
Own	-12.4088
wick	-12.4088
bugreport	-12.4088
worldlists	-12.4088
tesla	-12.4089
bound	-12.4089
▁orign	-12.4089
1991	-12.4089
ethers	-12.4089
10.15.2	-12.4089
eandro	-12.4089
▁Controladores	-12.4089
\.\.?*	-12.4089
▁categories	-12.4089
17**	-12.4089
verge	-12.409
aspyre	-12.409
phuc	-12.409
▁automake	-12.409
EstherAseyoro	-12.409
Server	-12.409
Kai	-12.409
▁scriptaula	-12.409
-4.9.1	-12.409
▁mime	-12.409
5784	-12.4091
撉	-12.6086
ト	-12.6086
	-12.6086
	-12.6086
	-12.6086
ㄚ	-12.6086
作	-12.6086
券	-12.6086
堆	-12.6086
撣	-12.6086
滿	-12.6086
甇	-12.6086
餈	-12.6086
	-12.6086
	-12.6086
	-12.6086
颱	-12.6086
完	-12.8586
め	-12.8586
仇	-12.8586
示	-12.8586
里	-12.8586
Т	-12.8586
心	-12.8586
扑	-12.8586
方	-12.8586
旦	-12.8586
用	-12.8586
す	-12.8586
卷	-12.8586
后	-12.8586
胶	-12.8586
微	-12.8586
©	-12.8586
ó	-12.8586
々	-12.8586
さ	-12.8586
っ	-12.8586
丞	-12.8586
个	-12.8586
交	-12.8586
佐	-12.8586
分	-12.8586
初	-12.8586
國	-12.8586
地	-12.8586
変	-12.8586
子	-12.8586
学	-12.8586
定	-12.8586
小	-12.8586
技	-12.8586
日	-12.8586
木	-12.8586
机	-12.8586
氾	-12.8586
法	-12.8586
玩	-12.8586
產	-12.8586
电	-12.8586
直	-12.8586
相	-12.8586
科	-12.8586
端	-12.8586
絲	-12.8586
裝	-12.8586
蹦	-12.8586
逼	-12.8586
達	-12.8586
音	-12.8586
騷	-12.8586
黑	-12.8586
	-12.8586
è	-12.8586
П	-12.8586
下	-12.8586
获	-12.8586
動	-12.8587
博	-12.8587
套	-12.8587
妮	-12.8587
浪	-12.8587
淫	-12.8587
清	-12.8587
米	-12.8587
紅	-12.8587
聲	-12.8587
語	-12.8587
趣	-12.8587
長	-12.8587
電	-12.8587
靴	-12.8587
高	-12.8587
û	-13.192
ÿ	-13.192
他	-13.192
マ	-13.6919
フ	-13.6919
ン	-13.6919
仲	-13.6919
华	-13.6919
家	-13.6919
张	-13.6919
插	-13.6919
显	-13.6919
极	-13.6919
狂	-13.6919
脸	-13.6919
被	-13.6919
还	-13.6919
露	-13.6919
导	-13.6919
を	-13.6919
リ	-13.6919
上	-13.6919
从	-13.6919
去	-13.6919
回	-13.6919
女	-13.6919
引	-13.6919
房	-13.6919
注	-13.6919
熟	-13.6919
筛	-13.6919
肏	-13.6919
跳	-13.6919
销	-13.6919
信	-13.692
ț	-13.692
干	-13.692
抓	-13.692
短	-13.692
详	-13.692
ï	-13.692
ド	-13.692
到	-13.692
库	-13.692
出	-13.692
合	-13.692
同	-13.692
息	-13.692
£	-13.692
¥	-13.692
В	-13.692
Ч	-13.692
а	-13.692
г	-13.692
н	-13.692
я	-13.692
ё	-13.692
√	-13.692
か	-13.692
き	-13.692
し	-13.692
じ	-13.692
て	-13.692
に	-13.692
は	-13.692
や	-13.692
る	-13.692
ッ	-13.692
ツ	-13.692
ナ	-13.692
ペ	-13.692
业	-13.692
云	-13.692
但	-13.692
偷	-13.692
全	-13.692
准	-13.692
刚	-13.692
力	-13.692
勉	-13.692
午	-13.692
半	-13.692
发	-13.692
口	-13.692
国	-13.692
土	-13.692
址	-13.692
夜	-13.692
安	-13.692
实	-13.692
密	-13.692
屄	-13.692
年	-13.692
弄	-13.692
強	-13.692
志	-13.692
急	-13.692
戏	-13.692
才	-13.692
把	-13.692
拍	-13.692
指	-13.692
按	-13.692
换	-13.692
接	-13.692
支	-13.692
旅	-13.692
无	-13.692
时	-13.692
明	-13.692
是	-13.692
晚	-13.692
暂	-13.692
替	-13.692
月	-13.692
未	-13.692
条	-13.692
来	-13.692
构	-13.692
查	-13.692
栏	-13.692
根	-13.692
检	-13.692
款	-13.692
步	-13.692
消	-13.692
游	-13.692
点	-13.692
率	-13.692
生	-13.692
码	-13.692
移	-13.692
筹	-13.692
箱	-13.692
纪	-13.692
结	-13.692
给	-13.692
美	-13.692
节	-13.692
若	-13.692
补	-13.692
装	-13.692
视	-13.692
让	-13.692
设	-13.692
误	-13.692
说	-13.692
轻	-13.692
运	-13.692
适	-13.692
选	-13.692
邮	-13.692
错	-13.692
関	-13.692
阿	-13.692
面	-13.692
频	-13.692
́	-13.692
ż	-13.692
否	-13.692
最	-13.692
载	-13.692
い	-13.692
ぱ	-13.692
ら	-13.692
り	-13.692
ん	-13.692
备	-13.692
浏	-13.692
紧	-13.692
迁	-13.692
进	-13.692
名	-13.692
员	-13.692
对	-13.692
展	-13.692
并	-13.692
称	-13.692
览	-13.692
理	-13.692
管	-13.692
菜	-14.6872
正	-14.6873
模	-14.6874
文	-14.6875
式	-14.6876
块	-14.6877
善	-14.6878
可	-14.6879
单	-14.688
功	-14.6881
决	-14.6882
传	-14.6883
以	-14.6884
些	-14.6885
ジ	-14.6886
ま	-14.6887
̈	-14.6888
¬	-14.6889
试	-14.689
老	-14.6891
登	-14.6892
测	-14.6893
户	-14.6894
录	-14.6895
客	-14.6896
婆	-14.6897
复	-14.6898
产	-14.6899
解	-14.69
片	-14.6901
ク	-14.6902
配	-14.6903
追	-14.6904
环	-14.6905
容	-14.6906
境	-14.6907
化	-14.6908
优	-14.6909
ы	-14.691
数	-14.6911
增	-14.6912
コ	-14.6913
修	-14.6914
ã	-14.6915
验	-14.6916
证	-14.6917
“	-14.6918
т	-14.6919
–	-14.692
メ	-14.692
